<pad>	0
[UNK]	0
[CLS]	0
[SEP]	0
[MASK]	0
(,),	0
-	0
.	0
–	0
£	0
€"	0
도	-4.71777
이	-4.78839
▁잘	-4.78888
는	-4.79308
에	-4.87294
을	-4.91244
의	-4.93118
▁좋아요	-5.01956
가	-5.05072
은	-5.20058
▁너무	-5.32159
를	-5.38447
▁	-5.52253
로	-5.6573
고	-5.76037
▁이	-5.81357
으로	-5.88347
▁수	-5.91299
▁더	-5.91742
한	-5.91765
과	-5.98466
▁배송	-5.99942
만	-6.01257
지	-6.01427
▁좋습니다	-6.02785
▁좀	-6.05932
에서	-6.11737
하고	-6.14393
▁많이	-6.15089
▁다	-6.15515
▁만족합니다	-6.18893
▁그	-6.18949
요	-6.19985
▁안	-6.20903
▁배송도	-6.21622
▁같아요	-6.22667
▁것	-6.26256
▁정말	-6.27568
▁좋네요	-6.33453
▁빠르고	-6.33603
다	-6.33956
와	-6.36796
게	-6.37453
▁아주	-6.38344
▁감사합니다	-6.38622
나	-6.41803
인	-6.43725
▁년	-6.43749
서	-6.50588
▁항상	-6.51752
▁있는	-6.51834
▁맛있어요	-6.51858
▁한	-6.52407
▁또	-6.57206
▁좋은	-6.59124
네요	-6.62334
▁다른	-6.62597
하는	-6.63004
▁있습니다	-6.64634
▁좋고	-6.65118
해서	-6.65642
▁일	-6.66235
라	-6.66575
▁있다	-6.66745
▁제품	-6.67427
기	-6.69365
▁생각보다	-6.76681
▁있어요	-6.77702
해	-6.78006
거	-6.78812
입니다	-6.79049
할	-6.79348
▁조금	-6.80436
▁진짜	-6.81192
면	-6.81831
▁아직	-6.83004
▁늘	-6.83182
▁저렴하게	-6.86553
▁딱	-6.88251
▁그냥	-6.88709
까지	-6.89715
이라	-6.92551
▁있어서	-6.93376
▁때	-6.95188
▁넘	-6.98205
▁계속	-7.0007
보다	-7.00779
▁월	-7.02028
▁전	-7.02083
▁받았습니다	-7.02576
▁구매	-7.03202
하게	-7.04843
▁엄청	-7.05533
시	-7.06826
▁배송이	-7.07565
▁개	-7.09448
▁제	-7.09835
▁바로	-7.10081
수	-7.10114
▁쓰고	-7.10226
자	-7.10323
어	-7.104
▁완전	-7.10452
▁마음에	-7.10983
▁다시	-7.1168
사	-7.11703
진	-7.1197
▁않고	-7.12538
▁합니다	-7.12619
랑	-7.1291
▁자주	-7.15039
▁그리고	-7.1588
▁처음	-7.17007
구	-7.17304
는데	-7.18002
적	-7.18519
▁먹고	-7.18989
▁구매했어요	-7.19755
▁상품	-7.20029
인데	-7.20944
▁가성비	-7.21849
▁빠른	-7.22274
▁같이	-7.22456
▁가격도	-7.22586
▁제가	-7.2271
▁사	-7.23474
▁맘에	-7.24632
▁할	-7.25493
▁하고	-7.26546
야	-7.26885
하여	-7.26892
▁가격대비	-7.27612
▁역시	-7.27763
▁같은	-7.27891
▁가	-7.28584
▁재구매	-7.29049
니	-7.30079
▁샀는데	-7.30237
▁좋아서	-7.31027
이나	-7.3105
▁샀어요	-7.3123
이다	-7.31978
했다	-7.32539
된	-7.32953
▁일단	-7.33017
▁해서	-7.33627
▁사용	-7.33762
▁두	-7.36975
일	-7.37388
▁거	-7.37401
▁등	-7.37473
리	-7.37488
▁못	-7.3775
지만	-7.3837
▁후	-7.38499
▁저는	-7.39087
▁하는	-7.39682
합니다	-7.39717
▁가격에	-7.41974
▁매우	-7.4303
용	-7.43638
▁가격	-7.43883
아	-7.43967
▁이거	-7.44919
▁하나	-7.45915
들이	-7.46344
▁근데	-7.46382
▁믿고	-7.4649
▁중	-7.47257
▁약간	-7.47356
▁맛이	-7.4736
▁큰	-7.47631
▁같습니다	-7.48981
대	-7.4949
▁들어요	-7.50031
▁그래도	-7.51164
▁모두	-7.51687
▁한번	-7.52249
▁해	-7.52914
▁내	-7.53015
건	-7.53581
▁저렴한	-7.53711
스	-7.54041
들	-7.5445
▁대	-7.55277
▁없이	-7.55557
▁맛도	-7.56205
▁구매했는데	-7.56471
해요	-7.56601
▁꾸준히	-7.57018
▁것이다	-7.57155
처럼	-7.57438
▁하지만	-7.58048
라고	-7.58424
하였다	-7.5878
안	-7.588
▁사용하고	-7.58818
▁향이	-7.59238
것	-7.59532
▁빠른배송	-7.60462
며	-7.60582
▁저렴하고	-7.60714
▁구매했습니다	-7.61431
▁오	-7.61762
▁제일	-7.62064
▁가격이	-7.6213
▁아	-7.62997
▁살짝	-7.63066
▁물	-7.63584
전	-7.63695
▁제품입니다	-7.63726
데	-7.63885
▁했는데	-7.64172
성	-7.65017
▁가장	-7.65267
▁시	-7.65662
▁만족	-7.65732
오	-7.66506
▁때문에	-7.66639
▁것이	-7.67556
▁싸게	-7.67858
▁포장	-7.68845
▁나	-7.692
하지	-7.69442
에게	-7.69539
▁주문	-7.69855
▁있는데	-7.70065
▁있어	-7.70192
적인	-7.70541
치	-7.7073
▁대한	-7.70842
▁잘받았습니다	-7.70939
▁맛	-7.70975
▁보고	-7.71581
던	-7.71613
▁그래서	-7.72164
여	-7.72681
중	-7.72989
▁그러나	-7.73164
▁배송은	-7.73357
▁주	-7.73442
▁함께	-7.73535
▁듭니다	-7.73629
▁없는	-7.73636
주	-7.74046
▁원래	-7.74239
부	-7.74343
▁피부가	-7.75043
하면	-7.75486
▁오래	-7.75704
▁포장도	-7.7619
장	-7.7664
▁편하고	-7.7666
했는데	-7.76983
▁빨리	-7.77368
에는	-7.78123
상	-7.78428
▁입니다	-7.78464
듯	-7.78559
▁한다	-7.78655
▁자	-7.78658
▁많은	-7.79052
▁이런	-7.80329
▁참	-7.80446
▁고	-7.80727
하네요	-7.80731
하기	-7.80837
▁정도	-7.80874
구요	-7.81297
소	-7.81554
▁세	-7.81665
되어	-7.81672
▁느낌이	-7.81768
▁매번	-7.81895
제	-7.82016
미	-7.82213
▁번	-7.82925
▁이렇게	-7.82929
▁살	-7.82978
음	-7.83037
▁없고	-7.83631
비	-7.83985
▁거의	-7.84081
신	-7.84136
▁괜찮아요	-7.84296
▁있고	-7.84367
▁다만	-7.84414
▁것은	-7.84466
▁좋았어요	-7.84805
▁도	-7.85014
하	-7.85136
▁확실히	-7.85144
▁주문했는데	-7.85361
▁원	-7.85488
▁쓰는	-7.85685
▁먹기	-7.86134
▁될	-7.86242
▁정	-7.86272
▁말	-7.87187
두	-7.87273
▁의	-7.87322
걸	-7.87915
습니다	-7.884
▁느낌	-7.88779
화	-7.88858
질	-7.88903
이랑	-7.8938
부터	-7.89491
▁신	-7.89843
▁저	-7.90463
거나	-7.90504
▁아니라	-7.90661
정	-7.91573
▁없어서	-7.91743
▁위해	-7.92501
▁사이즈	-7.92853
▁먹는	-7.92922
▁맛있게	-7.94053
산	-7.94054
▁지	-7.94061
한다	-7.94102
되는	-7.94167
마	-7.9438
▁좋아	-7.94498
▁맛은	-7.94547
하니	-7.94617
▁그런	-7.95065
잘	-7.95249
▁나는	-7.95376
▁비	-7.95428
▁왜	-7.95433
▁우리	-7.96127
선	-7.96197
▁에	-7.96542
지는	-7.96719
보	-7.96752
▁제품은	-7.9688
▁향도	-7.97056
▁사서	-7.9745
좋아요	-7.97551
▁되어	-7.97983
들은	-7.98047
▁쓰던	-7.98191
▁이건	-7.98399
없이	-7.98627
어요	-7.98666
우	-7.98927
세	-7.99136
▁덜	-7.99324
▁깔끔하고	-7.99361
▁장	-7.9963
▁추천합니다	-7.99944
▁산	-8.00135
▁알	-8.00174
▁것을	-8.00529
▁전에	-8.00741
드	-8.0117
▁않아서	-8.01295
▁꼭	-8.01411
함	-8.01502
▁예뻐요	-8.01647
▁최고	-8.01664
원	-8.01737
긴	-8.01761
▁그는	-8.01959
▁주문했어요	-8.02468
더라구요	-8.02801
▁뭐	-8.03102
▁작은	-8.0317
히	-8.03235
▁있었다	-8.03521
▁왔어요	-8.03578
▁만	-8.03744
후	-8.03898
▁좋았습니다	-8.03925
▁바르고	-8.04055
면서	-8.04116
▁그런데	-8.04849
▁구입했어요	-8.05013
▁피부	-8.05018
▁빠르게	-8.05052
▁훨씬	-8.05734
▁구입	-8.05796
동	-8.05907
이에요	-8.07019
더	-8.07547
▁양이	-8.0762
▁좋다고	-8.07971
▁로	-8.08262
라는	-8.08634
▁구	-8.08725
▁차	-8.08852
트	-8.09163
▁아이가	-8.09528
▁구매해서	-8.09532
▁하	-8.09847
▁촉촉하고	-8.09882
되었다	-8.10107
조	-8.10152
당	-8.10325
▁요즘	-8.105
▁조	-8.10501
▁배송빠르고	-8.10558
▁지금	-8.10647
엔	-8.10715
▁들어	-8.10913
▁디자인	-8.11067
하면서	-8.11074
▁단	-8.11088
▁효과가	-8.11358
▁부	-8.11414
▁기	-8.11542
▁번째	-8.1183
▁맛있네요	-8.11987
네	-8.12001
▁두번째	-8.12338
▁하네요	-8.12472
▁이제	-8.12541
▁미	-8.12644
되고	-8.12651
▁따라	-8.12697
▁분	-8.1356
적으로	-8.14115
차	-8.14172
에도	-8.14256
▁및	-8.14266
개	-8.14372
▁게	-8.14528
▁좋은데	-8.14635
▁듯	-8.14708
▁않아요	-8.14951
▁반	-8.15012
▁크게	-8.15341
식	-8.15359
용으로	-8.15916
죠	-8.16091
그	-8.16377
▁금방	-8.16428
이라고	-8.16476
▁별로	-8.16714
다가	-8.16915
다고	-8.16991
▁굿	-8.17153
▁제품이	-8.17449
▁설치	-8.17529
▁있을	-8.17763
▁양	-8.17929
무	-8.17981
▁맛있습니다	-8.18001
▁이상	-8.18089
임	-8.18168
▁생각	-8.1825
▁같네요	-8.18519
▁특히	-8.1853
▁데	-8.18806
▁약	-8.18834
▁효과	-8.18919
했어요	-8.19102
▁만족해요	-8.19175
▁쓸	-8.1922
▁추천	-8.19568
▁여러	-8.19892
▁그런지	-8.1992
▁오늘	-8.20095
▁줄	-8.20098
타	-8.20202
▁막	-8.20571
▁건	-8.20604
▁타	-8.20793
▁부드럽고	-8.20826
유	-8.20937
하며	-8.21274
▁또한	-8.2197
▁소	-8.22029
이네요	-8.22176
▁일반	-8.22291
▁아이	-8.22379
▁무	-8.22462
▁되는	-8.2254
▁서	-8.22659
▁했다	-8.22963
▁있네요	-8.23103
▁양도	-8.23268
에서는	-8.23431
▁보	-8.23857
물	-8.24109
▁호	-8.24124
▁외	-8.24209
▁강	-8.2437
실	-8.24786
▁어떤	-8.252
▁상	-8.25325
▁받았어요	-8.25384
모	-8.25416
▁유	-8.25579
▁재	-8.2558
▁편해요	-8.25998
▁보다	-8.26146
▁빨라서	-8.2627
▁인	-8.26441
▁먹을	-8.26479
▁피부에	-8.26715
▁것으로	-8.26748
이고	-8.26753
바	-8.26764
▁전혀	-8.26901
니까	-8.27151
▁이뻐요	-8.27249
▁달	-8.27302
▁제품을	-8.27539
러	-8.27565
란	-8.27837
으면	-8.27853
줄	-8.28017
▁와서	-8.28132
해야	-8.2825
▁저렴해서	-8.28993
▁나서	-8.29107
▁사용하기	-8.29203
▁사용하는	-8.29371
▁시간	-8.29428
▁모든	-8.29471
▁배	-8.29587
▁편하게	-8.29767
길	-8.29881
단	-8.30181
르	-8.30209
들을	-8.30429
▁괜찮네요	-8.30525
때	-8.3069
파	-8.30851
▁이번에	-8.30882
▁와	-8.31103
▁향	-8.31257
▁어	-8.31315
▁선물로	-8.31485
▁매일	-8.31614
▁되고	-8.31635
▁여기서	-8.3177
▁김	-8.31797
꺼	-8.31965
▁쓰기	-8.31999
▁없어요	-8.32144
▁디자인도	-8.32148
▁된	-8.32189
▁온	-8.32318
려	-8.32359
▁구매합니다	-8.32414
▁많아서	-8.32713
형	-8.33261
▁몇	-8.33445
▁예쁘고	-8.33553
▁우선	-8.33647
▁같아서	-8.33862
▁비해	-8.33912
내	-8.33993
인지	-8.34012
노	-8.34014
▁날	-8.34459
져	-8.3446
너무	-8.3464
▁별	-8.34774
▁튼튼하고	-8.34972
▁볼	-8.35016
기도	-8.3546
맛	-8.3548
▁불	-8.35572
에요	-8.35622
까	-8.36157
라서	-8.36288
▁선	-8.36392
▁걸	-8.36399
▁냄새가	-8.36512
▁성	-8.36582
보고	-8.36748
▁뒤	-8.36959
▁효과는	-8.37247
▁그렇게	-8.373
▁많고	-8.37377
▁싸고	-8.37444
▁새	-8.37497
▁마	-8.37828
▁않은	-8.38239
▁좋아하는	-8.38564
▁벌써	-8.38735
▁맛있어서	-8.38802
▁먹으면	-8.38847
▁남	-8.38934
▁하루	-8.3915
간	-8.39284
▁다음날	-8.39288
▁초	-8.39309
▁선물	-8.39482
▁후기	-8.39655
있는	-8.39659
분	-8.39686
▁따로	-8.39746
▁되었다	-8.39958
▁파세요	-8.40135
▁제품도	-8.40421
▁있지만	-8.40454
▁써보고	-8.40581
▁아이들이	-8.40849
▁짱	-8.40851
디	-8.41059
▁가지고	-8.41513
▁발	-8.41523
▁그의	-8.42038
▁된다	-8.42139
▁통	-8.42246
▁피	-8.42443
날	-8.42464
제품	-8.42623
▁공	-8.42929
때문에	-8.42946
▁직접	-8.42949
▁또는	-8.43013
▁만족스럽습니다	-8.43179
▁이후	-8.43242
▁물건	-8.43443
▁사실	-8.43536
▁가볍고	-8.43547
레	-8.43558
▁샀습니다	-8.43577
▁모	-8.43748
▁먹어요	-8.43823
반	-8.4395
포	-8.44296
정도	-8.44339
영	-8.44375
카	-8.44558
거같아요	-8.44698
▁기대	-8.44816
▁본	-8.44978
▁진	-8.45179
▁집에	-8.45365
하다	-8.45383
연	-8.45407
▁문제	-8.45586
려고	-8.45621
▁이쁘고	-8.45673
▁이게	-8.45798
저	-8.45799
▁않아	-8.45852
▁명	-8.45867
방	-8.46276
▁집에서	-8.46408
▁다음에	-8.46415
▁않는	-8.46484
▁써	-8.46487
거라	-8.46492
▁입	-8.46526
▁충전	-8.46569
▁내가	-8.46634
발	-8.4681
▁첫	-8.46891
▁파	-8.46958
▁너무너무	-8.46988
▁했어요	-8.46992
호	-8.47089
더니	-8.47176
재	-8.47451
▁열	-8.47536
어서	-8.4756
▁맛있고	-8.47794
▁도움이	-8.47839
하는데	-8.47857
었는데	-8.47886
▁제품이라	-8.4814
했습니다	-8.48241
국	-8.48273
▁것도	-8.48347
▁한국	-8.4845
▁사용할	-8.48607
감	-8.48663
▁가지	-8.48775
▁됩니다	-8.48917
이라는	-8.492
▁없네요	-8.49296
▁좋구요	-8.49446
▁보통	-8.49551
▁좋아해서	-8.49802
▁점	-8.49815
었다	-8.49854
▁그대로	-8.49989
▁구매하는	-8.50051
문	-8.50071
배송	-8.50111
▁했습니다	-8.50281
▁깔끔하게	-8.50285
할때	-8.50419
▁좋을	-8.50545
▁들고	-8.5059
크	-8.50757
▁바	-8.51266
▁빨라요	-8.51277
▁보니	-8.51315
▁하는데	-8.51328
▁색상	-8.51363
▁색이	-8.51601
색	-8.5166
▁난	-8.51738
▁위	-8.52011
▁만들어	-8.52132
대로	-8.52337
▁주문해서	-8.52365
양	-8.52773
될	-8.53094
경	-8.53252
▁없다	-8.53465
였다	-8.53644
▁어떻게	-8.53847
▁괜찮은	-8.53848
▁쓰다가	-8.53872
▁동	-8.53986
▁요	-8.5422
▁구입했는데	-8.5428
▁넣어	-8.54304
▁구입했습니다	-8.54539
하지만	-8.54548
공	-8.54552
이었다	-8.54588
루	-8.54676
▁박	-8.54799
▁왔네요	-8.5507
▁경우	-8.5536
▁여	-8.55402
져서	-8.55484
▁아니	-8.55528
코	-8.55598
▁무엇보다	-8.55606
▁추가	-8.55651
씩	-8.55651
▁를	-8.55686
▁노	-8.55933
만큼	-8.55975
▁해요	-8.5618
▁하면	-8.56504
▁잘못	-8.56831
청	-8.5689
▁문	-8.56915
▁커피	-8.56922
▁커서	-8.56937
▁집	-8.5696
▁두개	-8.57164
▁머리	-8.57283
▁되네요	-8.57497
▁바르면	-8.57732
▁모르겠지만	-8.57956
▁우	-8.58555
▁사이즈가	-8.58564
▁걱정했는데	-8.5895
운	-8.59161
▁굉장히	-8.59235
▁크림	-8.5964
토	-8.59678
▁아침에	-8.60219
▁일본	-8.6033
▁연	-8.60386
피	-8.60537
지도	-8.60689
▁간식으로	-8.60856
프	-8.60889
▁알고	-8.60898
▁같아	-8.6102
▁품질	-8.61024
린	-8.61111
온	-8.61608
▁워낙	-8.61806
▁박스	-8.6189
구매	-8.61942
명	-8.61959
▁쉽게	-8.62297
▁통해	-8.62333
점	-8.62455
보다는	-8.62933
▁좋은거	-8.62955
집	-8.63143
▁들	-8.63166
▁아니고	-8.63205
심	-8.63233
▁빠르네요	-8.63544
▁물론	-8.63663
▁젤	-8.64419
▁부분이	-8.64452
▁앞으로	-8.64681
들의	-8.64972
▁예	-8.65013
다는	-8.65022
▁먼저	-8.65417
▁걱정	-8.65423
▁냄새	-8.65775
▁트러블	-8.6585
향	-8.6586
즈	-8.65988
계	-8.66021
예요	-8.66045
같은	-8.66202
▁꼼꼼하게	-8.6621
▁아닌	-8.66271
▁케이스	-8.66486
▁빠릅니다	-8.66574
위	-8.66674
것같아요	-8.66694
좀	-8.66864
▁뭔가	-8.66962
▁좋아해요	-8.67006
▁가끔	-8.67135
▁안전하게	-8.6727
살	-8.67462
▁시간이	-8.67546
▁있었는데	-8.67767
▁한달	-8.67867
군	-8.67989
편	-8.68007
▁교환	-8.68275
▁위에	-8.68285
▁이것만	-8.68741
▁당	-8.68874
강	-8.68966
남	-8.69021
▁되	-8.69168
▁색	-8.69298
티	-8.69302
▁보면	-8.69383
하나	-8.69463
했던	-8.69475
▁편	-8.69672
천	-8.69718
▁좀더	-8.69747
▁천	-8.69873
▁속	-8.69915
등	-8.69948
▁손	-8.70064
▁백	-8.701
▁확인	-8.70127
▁좋겠어요	-8.70374
생	-8.70473
▁왔습니다	-8.70513
보니	-8.70557
▁삼	-8.70576
▁안에	-8.70746
있어서	-8.70937
▁얼굴에	-8.71059
▁이미	-8.71066
▁자꾸	-8.71185
▁없어	-8.71205
▁아이들	-8.71275
▁두고	-8.71319
이며	-8.71355
있어요	-8.71368
▁고민	-8.71403
▁기존에	-8.71446
지고	-8.71501
금	-8.71514
통	-8.71563
▁과	-8.7172
관	-8.71843
▁이러한	-8.72079
병	-8.72109
기는	-8.7229
▁맛나요	-8.72318
▁받고	-8.72736
▁심	-8.72829
약	-8.73024
교	-8.73053
▁영	-8.73057
건지	-8.73107
달	-8.73107
▁경	-8.73384
▁미국	-8.73418
▁괜찮습니다	-8.73431
▁어느	-8.73698
▁이번	-8.73753
▁모르겠어요	-8.73877
▁엄마	-8.74156
했고	-8.7417
▁년에	-8.7419
▁대해	-8.74238
▁기분이	-8.74473
기가	-8.74481
키	-8.7453
▁동안	-8.74606
초	-8.7483
▁위한	-8.74896
기를	-8.75069
▁얼굴	-8.75156
중에	-8.75467
▁조립	-8.75581
된다	-8.75623
▁포장이	-8.75633
▁맛있는	-8.75693
입	-8.75711
▁아기	-8.75755
▁기존	-8.75811
▁은	-8.75819
▁기본	-8.75917
터	-8.76072
▁제대로	-8.7611
▁사진	-8.76115
▁제품이에요	-8.76158
▁작아서	-8.76256
▁사고	-8.7626
▁의사	-8.76339
▁상품도	-8.76529
▁기분	-8.76568
▁최고입니다	-8.76924
▁사람이	-8.76994
▁구입해서	-8.77033
좋고	-8.77177
▁크고	-8.77441
▁매	-8.77487
▁유통기한도	-8.7754
▁더욱	-8.77571
▁스킨	-8.77661
▁미리	-8.77832
▁만한	-8.77864
▁포	-8.779
기에	-8.77918
▁써봤는데	-8.78105
▁샘플	-8.78375
▁색상도	-8.78419
▁구매하고	-8.78492
난	-8.78499
▁구매할	-8.78697
▁있다고	-8.78725
▁않네요	-8.78741
년	-8.78934
석	-8.7896
것도	-8.79179
▁각	-8.79242
박	-8.79399
▁다음	-8.79405
▁코	-8.79441
학	-8.79655
▁적	-8.79766
이라서	-8.7983
▁올	-8.79951
▁사용하던	-8.80019
▁상품입니다	-8.8003
▁자기	-8.80099
는게	-8.80172
▁방	-8.80214
▁필요	-8.80253
와서	-8.80524
▁없습니다	-8.80565
▁여기	-8.80644
▁대신	-8.80727
▁생각이	-8.80765
▁드네요	-8.808
이예요	-8.8094
▁눈	-8.81255
▁하지	-8.81272
본	-8.81369
▁회	-8.81404
▁총	-8.81724
▁선택	-8.81727
▁사는	-8.8187
▁않았지만	-8.82243
▁받아	-8.82304
종	-8.82515
▁있던	-8.82579
▁상품은	-8.82712
▁조아요	-8.82731
▁괜찮고	-8.82833
▁적당히	-8.83
▁현재	-8.83148
▁음	-8.83218
▁평소	-8.83241
▁꽤	-8.83253
▁저도	-8.83371
▁색상이	-8.83452
직	-8.83511
든	-8.8356
▁받아서	-8.83572
▁있다는	-8.83644
백	-8.8369
▁세계	-8.83693
▁부드럽게	-8.83847
▁순	-8.83918
▁정도로	-8.83968
▁새로운	-8.84029
▁결국	-8.84077
▁개월	-8.84216
▁간	-8.84305
▁일이	-8.84434
▁얼굴이	-8.84595
▁쓰	-8.84977
▁갈	-8.85072
▁말이	-8.85118
▁브랜드	-8.85121
▁유통기한	-8.85134
▁오히려	-8.85138
▁연결	-8.85204
▁화장품	-8.85241
지않고	-8.85292
▁면	-8.8537
▁아침	-8.85419
▁당시	-8.85582
해도	-8.85826
▁쓰면	-8.86045
▁기간	-8.86081
▁리	-8.86155
▁넣고	-8.86223
▁알았는데	-8.86321
▁향은	-8.86449
겠죠	-8.86487
전에	-8.86596
나요	-8.86627
말	-8.86786
▁스	-8.868
▁병	-8.86822
길래	-8.86976
▁실	-8.87059
판	-8.87062
민	-8.87086
▁눈에	-8.87125
▁크기도	-8.87125
▁잘되고	-8.87321
▁네	-8.87408
▁쓰는데	-8.8747
▁크기가	-8.87472
▁애	-8.87562
▁하루만에	-8.87806
▁적당하고	-8.87878
나서	-8.88002
▁받은	-8.88049
▁맞는	-8.88083
체	-8.88346
▁변	-8.88397
각	-8.88427
근데	-8.88461
래	-8.88473
네여	-8.88488
▁자신의	-8.88676
▁무슨	-8.8882
쓰	-8.89003
배	-8.89145
맛이	-8.89253
▁혼자	-8.89368
▁같은데	-8.89555
▁친구	-8.89753
▁새로	-8.89988
림	-8.90048
▁않	-8.90114
▁보내	-8.90147
▁아들	-8.90486
▁목	-8.90488
매	-8.90722
▁운동	-8.91244
사용	-8.91265
▁사람	-8.91271
▁좋	-8.91342
회	-8.91627
류	-8.91671
태	-8.9179
▁리뷰	-8.91968
되서	-8.92007
급	-8.92175
향이	-8.92196
▁먹어	-8.9227
여서	-8.92286
▁엄마가	-8.92398
▁중에	-8.92425
▁건조한	-8.92664
▁해도	-8.92709
▁같고	-8.92897
▁밥	-8.93011
▁잘쓰고	-8.93119
▁들어서	-8.93142
▁아니지만	-8.9321
많이	-8.93261
▁화	-8.93381
▁사용후기	-8.93455
▁열심히	-8.93501
불	-8.93514
▁적당한	-8.93616
▁팔	-8.93616
버	-8.93656
이지만	-8.93699
창	-8.93777
▁씁니다	-8.93804
▁지난	-8.93905
을때	-8.93952
▁회사	-8.9396
▁소리가	-8.93969
▁먹던	-8.93999
▁저희	-8.9404
▁나름	-8.94106
▁다들	-8.94179
▁사용해	-8.94245
▁사이즈도	-8.94318
▁샴푸	-8.94365
준	-8.94397
▁한데	-8.94646
▁선물용으로	-8.94742
▁채	-8.94782
거든요	-8.94895
갈	-8.94936
권	-8.94995
▁종	-8.95014
▁이용	-8.95051
▁좋은것	-8.95052
락	-8.95223
▁옷	-8.95251
▁구매하게	-8.95264
씨	-8.95272
▁비타민	-8.95391
▁있	-8.95515
▁택배	-8.95544
으니	-8.95726
열	-8.95793
▁국	-8.96055
울	-8.96468
니다	-8.96468
▁해야	-8.96529
▁디자인이	-8.96547
▁감사	-8.96659
▁일에	-8.9687
▁않았다	-8.96928
▁치	-8.97241
▁필요한	-8.97303
마다	-8.97409
▁군	-8.97415
▁잘받았어요	-8.97525
▁수도	-8.97672
▁먹었는데	-8.97839
▁순하고	-8.9784
▁겨울	-8.97919
▁먹었어요	-8.97977
▁있으면	-8.98116
▁돈	-8.98118
▁쓰겠습니다	-8.98203
▁좋아하네요	-8.98349
▁좋음	-8.98494
▁등을	-8.98593
▁상태	-8.98664
하려고	-8.98798
▁키	-8.98899
▁아쉽네요	-8.99063
법	-8.99085
▁평	-8.99197
▁먹었습니다	-8.99361
작	-8.99446
▁않지만	-8.99509
▁있으며	-8.99729
▁편합니다	-8.99754
▁오일	-8.99761
▁대비	-8.99893
역	-8.99994
▁다이어트	-8.99996
▁색도	-9.00049
으며	-9.00173
되	-9.00257
▁말했다	-9.00521
▁나쁘지	-9.00584
▁먹어보고	-9.00734
▁주문하고	-9.00795
▁로션	-9.00864
▁처음에	-9.00998
▁여자	-9.01172
▁마시고	-9.0122
▁번창하세요	-9.01489
밖에	-9.01803
▁시작	-9.01901
▁놓고	-9.01934
▁하였다	-9.01973
속	-9.01977
느낌	-9.02049
▁좋겠네요	-9.02055
▁언제나	-9.02262
▁하나씩	-9.02278
▁않습니다	-9.0239
애	-9.02458
▁서울	-9.02953
▁주문했습니다	-9.03111
▁사회	-9.03119
▁좋다	-9.03156
업	-9.03183
▁소리	-9.03206
▁높은	-9.03356
▁어제	-9.03465
걸로	-9.03482
같이	-9.03484
출	-9.03579
건데	-9.03651
▁팩	-9.03664
글	-9.03694
었어요	-9.03752
▁만족하고	-9.03807
▁카	-9.03821
▁예전에	-9.03831
현	-9.03931
▁관리	-9.03945
더라고요	-9.04316
▁의해	-9.04397
목	-9.04441
▁정리	-9.0445
▁건조	-9.04453
▁많아	-9.0451
▁만큼	-9.04527
▁간편하게	-9.04552
▁라	-9.04594
하기도	-9.04764
▁좋아용	-9.04853
▁중국	-9.04872
▁생	-9.04897
▁도착	-9.0494
▁않을	-9.05026
▁좋으네요	-9.0528
론	-9.05312
▁만원	-9.05626
▁구매한	-9.0566
▁하여	-9.05667
▁최	-9.05789
행	-9.05847
▁판매	-9.05998
처	-9.06016
▁문제가	-9.06136
▁먹	-9.06142
▁했지만	-9.06149
절	-9.06183
알	-9.06286
좋습니다	-9.06308
했지만	-9.06385
▁시켰는데	-9.06395
볼	-9.06519
좋네요	-9.06533
▁감	-9.06533
봉	-9.06635
▁싸	-9.06808
▁원하는	-9.06953
네용	-9.0698
▁찾아	-9.06999
순	-9.07037
없는	-9.07125
▁앞으로도	-9.07195
▁그리	-9.07203
▁가격은	-9.07323
▁길	-9.07408
▁시켜	-9.07452
▁판	-9.07475
▁등의	-9.07513
담	-9.07624
▁우유	-9.07641
▁왕	-9.07667
▁따라서	-9.07767
▁첨	-9.08348
▁에서	-9.08428
너	-9.08497
▁만두	-9.08568
▁작동	-9.08654
▁주고	-9.08719
▁쓰려고	-9.08902
▁비싼	-9.08917
근	-9.08929
▁할인	-9.08938
▁냄새도	-9.08945
▁으로	-9.08966
놓고	-9.09203
▁들어가	-9.09405
부분이	-9.09482
▁이번엔	-9.09557
▁얼마나	-9.09583
▁봉	-9.09587
▁쉽고	-9.09879
▁부분	-9.10014
▁영화	-9.10082
▁화장	-9.1009
있고	-9.10231
번	-9.10473
▁여성	-9.10528
▁말을	-9.10609
립	-9.10621
▁나무	-9.10684
▁돌	-9.10696
▁먹겠습니다	-9.10701
는거	-9.10832
하던	-9.10877
▁경제	-9.10951
배송도	-9.11042
추	-9.1113
▁느낌은	-9.1129
▁없	-9.11347
라도	-9.11393
▁긴	-9.11481
▁대박	-9.11486
▁질	-9.11527
▁교체	-9.11889
▁곧	-9.12055
▁제품인데	-9.12287
되지	-9.12372
막	-9.12387
▁깔끔한	-9.12647
릴	-9.12661
▁이쁘네요	-9.12759
▁간편하고	-9.12805
▁없었다	-9.12903
▁감사해요	-9.12961
▁최근	-9.12988
인가	-9.13051
주의	-9.13087
복	-9.13277
▁금	-9.13367
한테	-9.13396
▁일주일	-9.13418
▁토	-9.13596
망	-9.13605
▁이걸로	-9.13653
짐	-9.13702
▁고정	-9.13758
했네요	-9.13768
▁입고	-9.1379
▁이것저것	-9.13846
▁먹어도	-9.13884
설	-9.13921
▁인터넷	-9.13942
▁가운데	-9.1401
보단	-9.14031
먹고	-9.14056
▁크기	-9.14504
▁갖고	-9.1453
▁만족입니다	-9.14559
철	-9.14561
▁솔직히	-9.14593
▁때문이다	-9.14685
▁사람들이	-9.14731
▁덕분에	-9.14731
▁잘샀어요	-9.14818
퍼	-9.14947
▁싼	-9.14971
▁트러블이	-9.14983
▁꼼꼼히	-9.15007
▁물이	-9.1503
▁며칠	-9.1504
됩니다	-9.15303
▁용량이	-9.15342
라면	-9.15349
▁강추	-9.1552
▁역	-9.1552
평	-9.15596
답니다	-9.15599
▁지역	-9.15697
주문	-9.15713
▁편하네요	-9.15749
▁앞	-9.15857
▁국가	-9.15858
▁보호	-9.1607
▁비슷한	-9.16082
▁맛있	-9.16282
▁하나도	-9.16288
▁블랙	-9.16306
▁먹으니	-9.16358
▁구매해	-9.16408
▁정품	-9.16427
▁좋아합니다	-9.16439
▁얼마	-9.167
▁다양한	-9.16778
▁샀네요	-9.16838
▁하니	-9.16888
예	-9.16895
▁너무좋아요	-9.16938
▁차이가	-9.16955
자가	-9.17019
▁즉	-9.17139
▁전화	-9.17183
▁사용중입니다	-9.17332
▁구매입니다	-9.17364
▁이어	-9.17381
▁되서	-9.17425
별	-9.17444
▁쓴	-9.1754
▁반품	-9.17612
정말	-9.17626
▁행사	-9.17769
▁토너	-9.17803
▁사봤는데	-9.1785
증	-9.17941
감이	-9.17945
▁울	-9.17959
▁넉넉하고	-9.17994
▁쏙	-9.18041
▁서로	-9.1806
▁밖에	-9.18166
광	-9.18292
▁좋은제품	-9.18301
수가	-9.18388
▁결과	-9.18431
▁사용하는데	-9.18582
▁치즈	-9.1867
▁만족스러워요	-9.18731
포장	-9.18738
아요	-9.18879
▁없을	-9.18907
▁먹는데	-9.18914
▁에센스	-9.18932
▁프로	-9.18953
▁여름	-9.18971
또	-9.19131
▁받자마자	-9.19134
▁청	-9.19155
상품	-9.19189
▁충분히	-9.19212
▁상품이	-9.19217
▁개인적으로	-9.1924
▁후에	-9.19246
▁상당히	-9.19575
▁성능	-9.19862
▁결정	-9.19865
▁제거	-9.1993
▁남편이	-9.20036
▁않게	-9.2004
▁물에	-9.20149
▁등이	-9.2026
▁남자	-9.20282
이란	-9.20395
도록	-9.20527
▁감사드립니다	-9.20562
▁이를	-9.2068
투	-9.2072
▁맞아요	-9.2073
▁구매했네요	-9.20781
▁맘에들어요	-9.20809
▁상품평	-9.20841
좋은	-9.20851
테	-9.20917
▁맛있다고	-9.21144
▁기능	-9.21149
▁주로	-9.21234
▁유명한	-9.21239
▁교	-9.21272
주고	-9.21491
▁예쁘네요	-9.21493
▁사은품	-9.21576
감사합니다	-9.21602
▁제품으로	-9.21664
▁라면	-9.21708
▁주는	-9.21727
▁전체적으로	-9.21738
쯤	-9.21847
▁효과를	-9.21888
력	-9.21891
만족합니다	-9.21897
시켜	-9.21909
는지	-9.22048
▁나오는	-9.22121
▁구성	-9.22273
▁한번에	-9.22284
▁아들이	-9.22291
격	-9.22308
하였고	-9.22411
▁허	-9.22639
▁되었습니다	-9.22687
▁개의	-9.22853
곤	-9.22983
츠	-9.23081
못	-9.23196
▁함	-9.23331
▁못하고	-9.23389
▁넣어서	-9.2348
▁광	-9.23492
▁아무	-9.23515
▁몸에	-9.23542
▁중요한	-9.23629
▁손에	-9.23668
성을	-9.23668
브	-9.23711
▁지금까지	-9.2387
▁분들은	-9.239
▁손이	-9.23992
▁배송도빠르고	-9.24003
▁품질이	-9.2414
▁성분	-9.24237
들도	-9.24417
▁달리	-9.2446
링	-9.24466
▁연구	-9.24695
한데	-9.24759
▁가볍게	-9.24804
▁가성비가	-9.24809
▁자연	-9.24855
▁발라	-9.24895
▁보관	-9.24939
메	-9.24948
▁때는	-9.2496
▁써봐야	-9.24961
▁수분크림	-9.25036
▁주셔서	-9.25103
▁아기가	-9.25121
이면	-9.25134
▁커버	-9.25134
께	-9.25231
▁나면	-9.25289
▁수가	-9.25384
제가	-9.25401
▁수분	-9.25422
▁핑크	-9.25434
왕	-9.25462
▁나고	-9.25539
▁갑자기	-9.25565
▁가서	-9.25596
▁여러가지	-9.25638
▁있게	-9.25641
성이	-9.25644
던데	-9.25659
결	-9.25838
▁조금씩	-9.25862
▁김치	-9.25966
▁절대	-9.26006
▁사용합니다	-9.26014
▁밤	-9.26217
▁촉촉한	-9.26318
▁없지만	-9.26425
▁글	-9.26446
▁귀	-9.26518
▁되어서	-9.26759
▁조선	-9.26837
▁일부	-9.26861
▁다음에도	-9.27023
▁풀	-9.27061
▁나온	-9.27065
▁잘쓰겠습니다	-9.27126
▁최고에요	-9.27183
▁평이	-9.27255
▁나중에	-9.27269
▁촉촉해요	-9.27366
▁끝	-9.27482
▁사용했는데	-9.27512
▁해결	-9.27573
▁비교	-9.2764
염	-9.27652
▁점이	-9.27716
크림	-9.27721
거에요	-9.27725
▁매트	-9.27842
▁적극	-9.27915
들과	-9.27953
▁모르겠네요	-9.28266
▁현	-9.28308
▁정치	-9.28463
▁설	-9.28465
하다가	-9.28588
▁술	-9.28767
희	-9.28788
▁강추합니다	-9.28897
덕	-9.2899
승	-9.29071
팩	-9.29168
▁여름에	-9.29208
▁배달	-9.29258
▁재구매합니다	-9.29391
▁먹습니다	-9.29468
▁보이는	-9.29509
▁썼는데	-9.29599
▁문화	-9.29621
▁유지	-9.29658
▁교육	-9.29826
▁좋다는	-9.29889
▁임	-9.29944
▁처음으로	-9.29988
로부터	-9.30041
▁송	-9.3011
▁인간	-9.30363
▁어디	-9.30369
▁하기	-9.30462
▁빨랐어요	-9.30464
▁봤는데	-9.30555
▁현대	-9.30629
▁되게	-9.30641
▁입을	-9.30671
▁몇번	-9.30726
▁관	-9.30773
▁얘기	-9.30778
▁편해서	-9.30783
▁유통기한이	-9.30895
하다고	-9.3101
품	-9.31246
▁황	-9.31287
변	-9.31298
▁찾다가	-9.31421
새	-9.31435
▁고려	-9.31521
쓰고	-9.31612
그리고	-9.3177
▁세기	-9.31854
▁어머니	-9.31911
▁갑	-9.31924
케	-9.32015
쳐	-9.32021
▁후기가	-9.32087
▁보는	-9.32097
▁여러번	-9.32139
▁준비	-9.32156
▁먼지	-9.32172
▁애들이	-9.32188
료	-9.32285
▁여기가	-9.32302
▁과자	-9.32357
▁싶어서	-9.32366
▁국민	-9.32393
▁역시나	-9.32468
채	-9.32501
없고	-9.32547
하긴	-9.32554
더군요	-9.3264
▁늦게	-9.32714
진짜	-9.32742
▁맞	-9.32778
▁애용하는	-9.32838
▁친절하게	-9.32843
▁쓰던거라	-9.33094
▁이걸	-9.33192
▁적은	-9.33285
▁지금은	-9.33297
▁년째	-9.33427
▁가는	-9.33495
▁처리	-9.33519
▁삼성	-9.33556
으나	-9.33571
쪽	-9.33634
▁확	-9.33657
령	-9.33669
▁그게	-9.33675
부분	-9.33833
하거나	-9.33838
▁생활	-9.34065
▁사랑	-9.34089
다른	-9.34173
있	-9.34179
▁급	-9.34196
▁먹으려고	-9.34277
겠지만	-9.34419
▁너	-9.34465
▁속에	-9.34518
▁얇은	-9.34521
▁위해서	-9.34554
▁작고	-9.34601
▁샘플도	-9.34824
냄새	-9.34846
왔어요	-9.34898
▁부모님	-9.34908
▁재구매했어요	-9.35021
▁머리가	-9.35096
표	-9.3512
▁밀	-9.35263
▁아래	-9.3528
▁예정입니다	-9.35326
딱	-9.35385
▁주문한	-9.35393
스트	-9.35401
▁나와서	-9.35409
▁까지	-9.35458
▁만든	-9.35466
▁사용하면	-9.3552
▁성분이	-9.35639
있는데	-9.35737
▁생산	-9.35762
져요	-9.35779
▁발색	-9.35824
었습니다	-9.35837
합	-9.35844
탄	-9.35993
▁고기	-9.36006
▁건강	-9.36077
▁화이트	-9.36183
▁후회	-9.36198
▁청소	-9.36225
가서	-9.36285
▁잔	-9.36316
▁부드러운	-9.3649
▁아무리	-9.36524
▁편인데	-9.36606
아주	-9.3661
▁시즌	-9.36626
▁한편	-9.36745
▁두번	-9.36803
▁사람은	-9.36804
▁주문해	-9.36884
▁컬러	-9.36924
▁대용량	-9.3699
▁진행	-9.37047
▁잘쓸게요	-9.3711
▁파는	-9.3717
▁같다	-9.3728
▁이야기	-9.37287
▁표현	-9.37357
▁환	-9.37405
▁존재	-9.37476
▁싶어요	-9.37511
▁아니다	-9.37591
▁신경	-9.37638
풍	-9.37722
▁우리는	-9.37806
▁예쁜	-9.37808
▁조절	-9.37832
▁되면	-9.37841
▁게임	-9.37958
쿠	-9.38016
▁포장되어	-9.38029
▁있음	-9.38105
으	-9.38127
칠	-9.3822
▁절	-9.38308
▁물을	-9.38384
▁용량도	-9.3841
▁용	-9.38632
밀	-9.38639
로서	-9.38647
▁부착	-9.38656
▁쌀	-9.38713
봤는데	-9.38724
▁이에	-9.38739
▁평소에	-9.38762
만족	-9.38781
▁먹어서	-9.38801
▁속이	-9.38803
▁유리	-9.38816
▁그가	-9.3882
▁싶네요	-9.38893
▁먹다가	-9.38911
있네요	-9.38926
▁처음엔	-9.38976
▁개발	-9.3902
생각	-9.39082
▁주문합니다	-9.39096
▁간식	-9.39157
워	-9.39212
▁챙겨	-9.39234
▁형	-9.39351
▁마트에서	-9.3941
귀	-9.39481
▁딸	-9.39636
주는	-9.39674
▁권	-9.39722
▁팀	-9.39787
▁겨울에	-9.39901
있습니다	-9.4
▁맞고	-9.40055
하구요	-9.40226
냐	-9.40387
▁품질도	-9.40387
되면	-9.40424
▁인생	-9.40467
▁담	-9.40482
환	-9.40595
▁좋아여	-9.40617
▁쓰고있어요	-9.40635
샀는데	-9.40683
▁사무실에서	-9.40716
▁야	-9.40837
▁방송	-9.40847
▁누	-9.40883
사이즈	-9.40895
▁음악	-9.40904
▁다리	-9.4102
좋아	-9.4116
악	-9.41182
▁가족	-9.41263
▁설명	-9.41273
▁안나고	-9.41305
▁고소하고	-9.41334
밥	-9.41339
겨	-9.41364
언	-9.41445
자는	-9.41453
▁용량	-9.4146
지를	-9.41474
다보니	-9.41491
▁발라도	-9.41525
곡	-9.41533
▁쭉	-9.41582
▁색깔	-9.41794
지요	-9.41854
외	-9.41865
▁그것은	-9.41883
겠어요	-9.41884
▁오는	-9.4189
▁착하고	-9.41986
▁광고	-9.42036
▁굳	-9.42163
▁침대	-9.42176
에서도	-9.42357
▁착	-9.42387
▁발림성도	-9.42448
손	-9.42487
▁점점	-9.42569
끼	-9.42731
▁여기저기	-9.42736
들에게	-9.4275
▁써요	-9.42801
거리	-9.42841
름	-9.42917
▁접	-9.42966
▁하면서	-9.4306
▁느낌이에요	-9.43062
▁고맙습니다	-9.43072
▁힘	-9.43112
▁편이라	-9.43134
좋	-9.43141
▁메	-9.43268
▁쓸게요	-9.43351
하구	-9.43422
쉬	-9.43471
▁건조해서	-9.4353
▁발견	-9.4356
▁대학	-9.43614
넘	-9.43753
▁따	-9.43795
집니다	-9.43796
▁바꿔	-9.4386
▁경기	-9.43882
▁동시에	-9.43905
▁최고의	-9.43924
▁기름	-9.43925
▁사은품도	-9.44072
별로	-9.44134
▁배송에	-9.44144
▁흡수	-9.44274
송	-9.44277
▁생각합니다	-9.44291
▁민	-9.44314
▁오자마자	-9.44415
탈	-9.44485
▁써서	-9.44519
▁법	-9.44535
▁저녁에	-9.44538
저는	-9.44577
돼	-9.44584
세요	-9.44603
▁신발	-9.44632
삼	-9.44647
▁세탁	-9.44668
듯해요	-9.44779
▁실망	-9.44922
▁주변	-9.45053
▁조금만	-9.45109
였는데	-9.45187
▁급하게	-9.45189
▁짜	-9.45261
▁이틀	-9.45312
▁컴퓨터	-9.45416
▁순간	-9.45496
▁재주문	-9.45517
했	-9.45562
▁여전히	-9.45573
올	-9.45643
먹	-9.45656
▁하나는	-9.45659
▁식	-9.45684
▁쿠폰	-9.45701
▁되지	-9.45756
▁불구하고	-9.45756
▁예쁘게	-9.45984
▁않는다	-9.46059
▁기술	-9.46064
▁학교	-9.46078
겠습니다	-9.46091
▁책	-9.46099
▁저녁	-9.46317
▁이동	-9.46374
▁베	-9.4648
▁빨랐고	-9.46521
▁인해	-9.46565
▁작	-9.46608
▁종이	-9.46628
졌다	-9.46644
▁생각했던	-9.46759
▁대만족	-9.46826
▁국내	-9.46865
▁기록	-9.46871
▁나와	-9.46957
▁윤	-9.46988
▁각질	-9.47161
▁깨끗하게	-9.47305
▁뒤에	-9.4734
▁바른	-9.47443
▁진한	-9.47454
▁짧은	-9.47528
▁부담없이	-9.47533
▁뚜껑	-9.47581
▁필수	-9.47688
다니	-9.47743
▁크네요	-9.47761
독	-9.47788
▁사봤어요	-9.47792
▁느낌입니다	-9.47831
▁의자	-9.47883
▁길이	-9.4799
▁여러개	-9.48108
▁신고	-9.48145
▁활동	-9.48189
▁처	-9.48279
▁석	-9.48337
▁싶어	-9.48338
▁가격으로	-9.48416
▁행	-9.48419
있어	-9.48462
▁냉동	-9.48513
받고	-9.48613
▁남편	-9.4874
▁필요해서	-9.48749
참	-9.48775
녀	-9.4879
움	-9.48831
▁앰플	-9.48845
▁무척	-9.48847
골	-9.48852
▁나가	-9.4894
누	-9.48967
▁친구가	-9.49001
▁아직은	-9.49036
▁크	-9.49141
▁이름	-9.49146
▁잘먹고	-9.49152
▁고생	-9.49201
▁손으로	-9.49202
▁그동안	-9.49248
▁염색	-9.49251
군요	-9.49468
▁먹어봤는데	-9.49554
▁나요	-9.49564
량	-9.49573
▁발전	-9.49579
안에	-9.49603
족	-9.49641
▁독일	-9.49659
가격	-9.49686
▁둘	-9.49695
▁필름	-9.49732
피부	-9.49747
▁사무실	-9.5
커	-9.50012
▁북	-9.50053
▁촉촉해서	-9.50085
▁것이라고	-9.50089
이상	-9.50124
▁연락	-9.50157
함이	-9.50248
▁라고	-9.50272
그냥	-9.50317
▁같	-9.50379
▁그닥	-9.50446
▁오고	-9.50527
▁넘나	-9.50606
곳	-9.50624
▁봄	-9.50666
▁하며	-9.50733
▁머	-9.5078
▁무조건	-9.50785
▁클렌징	-9.50859
▁프랑스	-9.50884
플	-9.51031
베	-9.51082
숙	-9.51086
▁패	-9.51096
▁실제로	-9.51114
째	-9.51118
▁발림성	-9.51137
▁의향	-9.51173
▁알게	-9.51175
구입	-9.51206
▁착용	-9.51222
축	-9.51233
▁서비스	-9.51259
▁철	-9.51322
▁대통령	-9.51383
▁언제	-9.51401
▁사이에	-9.5141
▁싸서	-9.51419
▁착한	-9.51419
▁디	-9.51421
▁도시	-9.51423
▁홍	-9.51488
▁사용해보니	-9.51541
▁인식	-9.5156
동안	-9.51666
그래도	-9.51758
▁인데	-9.51775
▁자유	-9.51786
▁보내주셔서	-9.51926
▁편리하고	-9.51972
▁얇아서	-9.52032
▁하게	-9.5205
월	-9.52102
들어	-9.52145
▁바랍니다	-9.52161
▁사업	-9.52207
▁지방	-9.52213
▁장착	-9.52264
▁다른거	-9.52265
▁창	-9.523
▁이번에는	-9.52311
▁못한	-9.52326
▁눈이	-9.52347
▁전부	-9.52432
▁극	-9.52443
▁이는	-9.52487
▁그때	-9.52519
▁드	-9.52528
는건	-9.52561
▁붙여	-9.52572
▁아니면	-9.52713
▁굿굿	-9.52764
▁밤에	-9.52802
▁마트보다	-9.52803
▁곳	-9.52837
▁작업	-9.52892
▁싶은	-9.52933
▁지원	-9.52933
한다는	-9.52947
▁각각	-9.53001
▁괜찮아서	-9.53003
때마다	-9.53039
▁플라스틱	-9.53071
까봐	-9.53104
▁아무래도	-9.53161
착	-9.532
▁국제	-9.5326
한다고	-9.533
▁티	-9.53347
▁마지막	-9.53363
▁속에서	-9.5345
▁조직	-9.5345
▁힘이	-9.53509
▁무거운	-9.53514
▁비비고	-9.53602
▁음식	-9.53661
▁망	-9.53681
▁처음에는	-9.53682
▁준	-9.53708
▁제품에	-9.5375
▁아예	-9.53766
▁것보다	-9.54101
▁안되는	-9.54184
▁높이	-9.54322
▁핸드폰	-9.54401
▁많아요	-9.54461
▁마음	-9.54588
▁단계	-9.54622
기로	-9.5464
▁떠	-9.54698
층	-9.54704
취	-9.54713
▁개봉	-9.54718
▁다소	-9.54858
▁독	-9.54971
▁없다고	-9.55048
▁요리	-9.55094
▁좋더라구요	-9.55154
▁바르기	-9.55163
▁누가	-9.55223
머	-9.55226
▁바람	-9.55228
려구요	-9.55239
▁그건	-9.5524
▁세번째	-9.55249
▁있으니	-9.55284
정도로	-9.55389
▁좋아하는데	-9.55401
술	-9.55462
▁마무리	-9.55628
사서	-9.55629
▁그럭저럭	-9.55635
▁올려	-9.55652
▁파우더	-9.5567
▁재구매입니다	-9.55707
▁앞에	-9.55727
▁테스트	-9.55781
▁죽	-9.55836
이니	-9.55836
색이	-9.55892
▁몇개	-9.55958
▁거품	-9.55982
없	-9.56007
돌	-9.56044
▁우리가	-9.56074
▁좋겠습니다	-9.56234
▁악	-9.56296
▁생각하고	-9.56357
김	-9.56366
▁한개	-9.56399
▁레	-9.56521
▁세일	-9.56538
사를	-9.56547
▁폰	-9.56583
님	-9.56678
▁신랑이	-9.56696
▁분들	-9.56768
▁나네요	-9.56777
▁종종	-9.56807
▁실제	-9.56833
▁감동	-9.56835
▁명의	-9.56907
규	-9.56952
▁듣고	-9.56996
팔	-9.57023
▁년대	-9.57071
▁복용	-9.57122
▁두유	-9.5713
▁있지	-9.57262
▁도착했어요	-9.57278
잔	-9.57293
▁억	-9.57546
▁한통	-9.57582
▁제작	-9.57612
▁떨어져서	-9.57681
▁맞네요	-9.57882
▁재구매의사	-9.57888
▁아버지	-9.58021
▁문의	-9.58031
▁먹고있어요	-9.58047
▁그거	-9.58067
▁추	-9.58099
찬	-9.5813
익	-9.58186
▁받	-9.58233
▁일을	-9.5824
재구매	-9.58279
▁유산균	-9.58423
▁승	-9.58459
▁입술	-9.58471
▁예뻐서	-9.5853
아서	-9.5858
벌	-9.58584
였어요	-9.58624
▁달고	-9.58671
▁미니	-9.58671
▁여행	-9.58766
▁구매를	-9.5894
▁개선	-9.59054
▁중간	-9.59072
▁가능	-9.59198
▁고민하다가	-9.59247
아직	-9.59248
▁써본	-9.59319
▁넘게	-9.59324
하세요	-9.5936
▁굿입니다	-9.59418
▁주장	-9.59422
▁도착했습니다	-9.59454
박스	-9.59473
하자	-9.59501
▁만족하며	-9.5951
▁먹어야	-9.5956
▁거품이	-9.59571
▁개인	-9.596
▁되었어요	-9.5969
▁레드	-9.59711
▁가방	-9.59736
▁이것은	-9.59829
▁안되서	-9.59838
치고	-9.59962
보면	-9.60002
▁인터넷으로	-9.60032
▁태	-9.60072
▁대표	-9.60086
▁원하던	-9.60091
▁강한	-9.60097
▁사용하려고	-9.6015
이죠	-9.60193
▁이유가	-9.60279
다면	-9.60313
▁세트	-9.60384
▁기자	-9.60444
▁많이파세요	-9.60458
지가	-9.6049
시간	-9.60517
▁무난하게	-9.6052
▁벌	-9.60542
페	-9.60669
▁가벼운	-9.60699
▁아닌데	-9.60832
▁루	-9.60909
▁완전히	-9.60919
▁저렴	-9.60923
▁빼	-9.60924
▁걸어	-9.60924
자를	-9.60989
▁복	-9.61071
▁바르는	-9.61091
▁가진	-9.61203
▁세안	-9.61255
▁주문하는	-9.61264
▁귀찮아서	-9.61267
▁최고예요	-9.61294
▁애들	-9.6132
▁바닥	-9.61521
▁나오	-9.61561
▁추가로	-9.61579
▁대부분	-9.61589
▁발생	-9.61679
▁박스에	-9.61733
▁먹네요	-9.61792
▁드는	-9.61831
▁무선	-9.61841
▁사이즈는	-9.61843
▁관련	-9.61928
▁전체	-9.61974
▁혹은	-9.62001
▁사세요	-9.62032
▁써보니	-9.62057
▁립스틱	-9.62089
▁다행히	-9.62119
▁책상	-9.62195
▁해주셔서	-9.62274
▁친	-9.62292
▁필터	-9.62346
▁그럴	-9.62368
따	-9.62374
▁잠	-9.62385
▁성공	-9.62396
▁기초	-9.62401
▁이사	-9.62453
▁하루에	-9.62473
▁화장실	-9.62486
▁것이었다	-9.62557
▁아는	-9.62668
▁쫌	-9.6268
▁스스로	-9.62695
▁촉촉	-9.62701
▁까	-9.62717
▁참고	-9.62724
려서	-9.62736
▁즐겨	-9.62762
▁암튼	-9.62782
▁너무나	-9.62871
었고	-9.62873
▁구매해요	-9.62883
▁예쁩니다	-9.62981
▁적응	-9.62984
▁평가	-9.62988
▁꽉	-9.62994
긴한데	-9.63004
▁사용중인데	-9.63056
▁몸	-9.63057
▁보기	-9.6307
▁괜찮은데	-9.63158
▁받는	-9.63204
한번	-9.6331
▁얇고	-9.63355
▁거라	-9.63364
▁가루	-9.63411
▁예정	-9.63429
▁구입합니다	-9.63434
습	-9.63459
▁싶었는데	-9.6349
▁미스트	-9.6358
거예요	-9.63609
▁오후	-9.63611
친	-9.63689
▁촉촉하니	-9.63703
▁부족	-9.63733
▁섞어	-9.63771
것이	-9.6381
▁괜찮은거	-9.63886
▁저번에	-9.63898
▁영국	-9.63993
내요	-9.63999
▁바지	-9.64014
▁상품을	-9.64034
되네요	-9.64083
▁구조	-9.64152
▁하겠습니다	-9.64178
▁거품도	-9.6422
▁밝은	-9.64248
▁자연스럽게	-9.64355
▁가을	-9.64359
되었고	-9.64359
쓰는	-9.64361
▁사용한	-9.64365
▁꺼내	-9.64454
▁실패	-9.64523
▁아쉬운	-9.64525
▁씨	-9.64539
▁대만족입니다	-9.64604
▁헤	-9.6461
▁가득	-9.64664
만두	-9.64664
▁방문	-9.64773
▁퍼	-9.64775
자의	-9.64805
견	-9.64809
됐다	-9.64852
▁산거	-9.64946
▁빈	-9.64979
▁떡	-9.64988
리는	-9.65067
▁납니다	-9.65185
▁마시는	-9.65229
▁관한	-9.65284
▁있기	-9.65386
▁걍	-9.65429
먹는	-9.6544
머리	-9.65503
▁뿐	-9.65582
았다	-9.65606
사진	-9.65633
▁돌려	-9.65734
▁예민한	-9.65761
그래서	-9.65798
▁좋구	-9.65802
▁듬뿍	-9.65803
어용	-9.6587
▁이어폰	-9.65875
▁정부	-9.65989
했으나	-9.65995
▁꽃	-9.66008
▁이불	-9.66037
▁두피	-9.66152
▁자극	-9.66161
▁그런가	-9.66163
▁사용해보고	-9.66167
컵	-9.6622
▁인정	-9.66274
수도	-9.66285
▁먹을수	-9.66337
▁디자인은	-9.66344
▁키보드	-9.66365
▁투	-9.66479
▁써도	-9.66526
▁밑에	-9.66568
▁진정	-9.66649
▁말고	-9.6668
▁검색	-9.66746
▁버	-9.66806
▁짱짱	-9.66849
▁공격	-9.66877
▁블루투스	-9.6699
▁않았어요	-9.67129
▁맞춰	-9.67134
▁노래	-9.67203
▁이쁩니다	-9.67271
▁한번씩	-9.67276
▁비닐	-9.67291
▁체	-9.67393
▁깜짝	-9.67471
▁않았는데	-9.67486
▁대한민국	-9.67497
▁받을	-9.67513
으로부터	-9.67527
아이	-9.67652
▁그만큼	-9.6767
▁입기	-9.67749
▁남아	-9.67812
▁내려	-9.67826
▁그렇지	-9.67874
▁녹	-9.67885
옷	-9.6796
▁계	-9.68047
▁아쉬워요	-9.6805
▁이해	-9.68084
▁그렇다고	-9.68102
▁왔고	-9.6818
▁색깔이	-9.68182
▁맨	-9.68201
인듯	-9.68267
▁있었어요	-9.68304
▁있었습니다	-9.68357
했으며	-9.68417
▁직	-9.6842
했을	-9.68426
▁트리트먼트	-9.68467
맛있어요	-9.68483
▁아쉽지만	-9.68487
▁놀랐어요	-9.68527
▁하나만	-9.68616
▁제품이예요	-9.68639
▁월에	-9.68639
▁있었던	-9.68655
▁맛있었어요	-9.68665
허	-9.68754
▁싹	-9.68825
▁쿠션	-9.68849
▁허리	-9.68867
▁저렴히	-9.68898
▁가벼워서	-9.68905
▁써야	-9.69028
▁비판	-9.69064
황	-9.69084
▁없는데	-9.69099
▁사용하겠습니다	-9.69178
▁재질	-9.69187
▁다르게	-9.69208
▁않을까	-9.69217
▁점은	-9.69313
구나	-9.69325
인줄	-9.69336
조금	-9.69377
탕	-9.69383
▁단골	-9.6953
슬	-9.69697
▁속도	-9.69741
관리	-9.69775
▁결혼	-9.69782
▁붙	-9.69918
▁작아요	-9.69919
▁안전	-9.6993
사는	-9.69947
▁그러	-9.69989
완전	-9.70062
▁동생	-9.70095
▁좋을것	-9.70156
▁뒷	-9.70173
▁색깔도	-9.70191
고요	-9.70203
장을	-9.70245
▁때마다	-9.70267
오고	-9.70289
짱	-9.70324
땐	-9.70375
침	-9.70403
했다고	-9.70407
항	-9.70414
▁경우가	-9.70419
▁가구	-9.70487
▁빨라	-9.70503
▁케이블	-9.70548
▁문제는	-9.70603
▁유럽	-9.70613
▁색상은	-9.70631
할수	-9.70643
맛은	-9.70654
커피	-9.70736
▁보습	-9.70756
▁남은	-9.70829
것보다	-9.70844
▁한참	-9.70864
▁만족스럽네요	-9.709
▁향수	-9.70935
▁혹시	-9.70956
▁그래요	-9.70975
▁일어나	-9.70979
▁메이크업	-9.71042
▁바르	-9.71095
▁요구	-9.71106
▁구입하는	-9.71123
▁케이스가	-9.71138
▁것처럼	-9.71153
일단	-9.71176
졌어요	-9.71192
▁민족	-9.71246
▁그녀는	-9.71254
▁이정도	-9.71304
▁트	-9.71341
▁맞게	-9.7142
슨	-9.71507
▁바닥에	-9.71547
▁니	-9.71612
▁힘들	-9.7164
▁조리	-9.71647
▁환경	-9.71706
었던	-9.7171
▁퀄리티	-9.7176
였던	-9.7179
▁불량	-9.71802
편이라	-9.71818
▁구입한	-9.7186
▁주신	-9.7187
▁만들	-9.71933
▁커	-9.71938
없어서	-9.72017
▁부분은	-9.72041
▁암	-9.72097
▁기업	-9.72156
▁탈	-9.72165
총	-9.72184
▁배송비	-9.72208
▁결	-9.7221
액	-9.72236
▁자신이	-9.72253
▁우연히	-9.7226
▁마침	-9.72279
▁사은품으로	-9.7242
맛도	-9.72605
▁영향을	-9.72635
다만	-9.72644
▁하시네요	-9.72678
▁순한	-9.72695
장이	-9.72714
▁제조	-9.72749
▁이전에	-9.72792
하시	-9.72809
▁그럼	-9.72858
▁자극이	-9.72859
▁깔끔	-9.72901
▁몇일	-9.72974
▁먹기도	-9.72986
편인데	-9.73033
암	-9.73061
▁리그	-9.73075
▁보여	-9.7317
▁마우스	-9.73215
▁많은데	-9.7324
▁활용	-9.73258
▁짱입니다	-9.73318
▁사진과	-9.73331
▁소설	-9.73354
소리	-9.73468
▁없음	-9.73571
▁편한	-9.73576
한거	-9.73658
▁년에는	-9.73675
▁컵	-9.73797
▁왔는데	-9.73822
▁하다	-9.73829
▁비누	-9.73833
▁통째	-9.73907
▁되는데	-9.73923
▁한다는	-9.74125
▁진하고	-9.74149
▁하자	-9.74203
인데도	-9.74211
▁명이	-9.74217
리고	-9.74297
▁좋으면	-9.74316
이어서	-9.74358
▁비비	-9.74369
짜	-9.74409
▁타사	-9.74446
▁요거	-9.74461
▁불편	-9.74468
▁무지	-9.74563
▁보이	-9.74563
례	-9.74567
▁빠른배송감사합니다	-9.74569
▁꿀	-9.74616
▁하다가	-9.74657
▁없다는	-9.74659
▁아이스크림	-9.74714
▁향기	-9.74715
▁몸이	-9.74826
▁잠시	-9.74861
▁이번에도	-9.74878
▁앉아	-9.74905
▁생각을	-9.75012
▁스타일	-9.75038
▁나의	-9.75038
▁자체가	-9.7504
▁않으면	-9.75106
▁느끼	-9.75133
▁약간의	-9.75146
▁예전	-9.75222
▁봅니다	-9.75229
▁표	-9.75239
▁길이가	-9.75299
▁왔	-9.75315
▁필	-9.75318
▁조사	-9.75341
▁잘먹겠습니다	-9.75366
▁조립도	-9.75417
▁고구마	-9.75435
▁돼	-9.75479
▁한다고	-9.75479
▁사용중	-9.75495
▁층	-9.75524
▁이가격에	-9.7553
▁밝혔다	-9.75602
▁맞아서	-9.75648
▁근	-9.75687
▁이것	-9.75698
▁요청	-9.75709
▁받았다	-9.75756
하셔서	-9.75763
른	-9.75784
▁이젠	-9.75796
▁합	-9.75798
▁몇년째	-9.75827
했더니	-9.7587
충	-9.75901
▁가능한	-9.75915
▁심한	-9.75957
육	-9.75963
사가	-9.76112
긴하지만	-9.76137
▁투명	-9.76185
▁라는	-9.76194
점이	-9.76202
처리	-9.76227
틀	-9.76244
▁좋았고	-9.76379
나는	-9.76416
잖아요	-9.76446
▁꼼꼼하고	-9.76465
▁키로	-9.76485
▁마음이	-9.76518
▁잘됩니다	-9.76518
▁가습기	-9.76519
▁립밤	-9.76531
▁야채	-9.76544
▁골	-9.7655
▁촉촉하게	-9.76598
▁냄새는	-9.76602
록	-9.76675
▁기능이	-9.76683
▁처럼	-9.76719
▁사람들은	-9.76753
▁길고	-9.76818
▁딱히	-9.76819
▁옛날	-9.76847
먹기	-9.76877
▁느낌도	-9.76884
왔	-9.76953
▁살아	-9.76964
▁오랜만에	-9.76976
▁없으면	-9.76983
에선	-9.77106
▁은은한	-9.77114
▁뚜껑이	-9.77137
▁아이폰	-9.77193
련	-9.77202
▁설정	-9.77248
▁떨어져	-9.7726
▁시작했다	-9.77261
▁먹을만	-9.77311
둘	-9.77323
▁좋지	-9.77356
생각보다	-9.77366
범	-9.7746
▁그림	-9.77463
▁좋아하시네요	-9.77468
력이	-9.77492
▁먼지가	-9.77505
▁이전	-9.77658
▁했네요	-9.77661
▁생각했는데	-9.7771
▁쿠팡	-9.77743
▁상품평이	-9.77778
▁참여	-9.77846
▁구입했네요	-9.77848
▁지인	-9.77988
▁보인다	-9.78012
운동	-9.78021
▁좋은거같아요	-9.78024
▁설치도	-9.78034
▁사이	-9.78044
▁간단하게	-9.78144
이라도	-9.78187
▁프로그램	-9.78221
▁육	-9.78241
▁저렴한가격에	-9.78245
적이	-9.78278
▁신랑	-9.78279
▁발송	-9.78321
극	-9.78352
▁통화	-9.78364
느	-9.78388
▁완성	-9.78395
▁역사	-9.78399
션	-9.78474
▁티비	-9.78488
▁반대	-9.78503
큰	-9.78521
▁것과	-9.78537
▁주시고	-9.78567
옥	-9.78569
▁보다는	-9.7859
▁차이	-9.78597
▁구매해봤어요	-9.7861
▁문자	-9.78854
▁발색이	-9.78855
▁중앙	-9.78857
▁않아도	-9.78922
▁딱입니다	-9.78933
북	-9.78962
▁나라	-9.78963
▁잘먹어요	-9.78975
▁러시아	-9.79001
▁사용해봤는데	-9.79022
▁섞어서	-9.79053
▁넓은	-9.79076
▁입술이	-9.79096
빈	-9.79197
▁고무	-9.79204
대신	-9.79206
▁부드러워요	-9.79249
▁깔끔합니다	-9.79286
먹으면	-9.793
▁회사에서	-9.79344
로는	-9.79346
▁포인트	-9.79393
건가요	-9.79404
어여	-9.79416
▁적용	-9.79421
▁물건도	-9.79439
인거	-9.79452
▁폭	-9.79472
가격도	-9.79498
니깐	-9.79513
시키는	-9.79514
잡	-9.79529
▁좋은상품	-9.79531
어야	-9.79567
▁있었으면	-9.79579
▁맨날	-9.79681
▁세척	-9.79696
▁뭐가	-9.79728
팀	-9.79752
되어서	-9.79832
▁아닙니다	-9.79834
이었는데	-9.79836
▁길어서	-9.79883
▁하려고	-9.79898
▁정보	-9.79951
▁패드	-9.80039
늘	-9.8012
▁적이	-9.80123
▁나이	-9.80167
▁아주좋아요	-9.80229
▁넘넘	-9.80239
▁전기	-9.8025
▁곳에	-9.80259
나무	-9.80263
▁손을	-9.80264
짜리	-9.80272
▁라인	-9.80277
하도록	-9.80401
▁맘에듭니다	-9.80403
잇	-9.80437
▁작게	-9.80463
▁깨	-9.80464
같아요	-9.80511
▁모델	-9.80609
▁커요	-9.80686
▁어느정도	-9.80705
▁넉넉해서	-9.80721
와의	-9.80741
▁무난한	-9.80767
찌	-9.80823
▁아이크림	-9.80835
▁있다면	-9.80855
▁공부	-9.80878
▁둘째	-9.80914
▁립	-9.80966
▁넉넉한	-9.80998
▁당연히	-9.81067
▁기억	-9.81139
설치	-9.81159
블	-9.81256
▁하나의	-9.81276
▁잠깐	-9.81309
▁오랫동안	-9.81345
▁정도는	-9.81392
▁그레이	-9.81395
▁개를	-9.81491
▁쓰게	-9.81503
▁위로	-9.81519
▁화면	-9.81591
▁둘다	-9.81591
두고	-9.81623
▁박스가	-9.81682
한게	-9.81718
▁지적	-9.81729
이구요	-9.81759
▁재구매횟수	-9.81786
이거	-9.81815
▁옆에	-9.81832
▁있어야	-9.81844
▁전쟁	-9.8186
▁섬	-9.81865
▁바를	-9.819
▁헤어	-9.81923
▁순해서	-9.81938
만한	-9.81946
▁이벤트	-9.81962
▁카드	-9.8197
▁시원한	-9.81998
됨	-9.82001
▁민감한	-9.82114
▁보내주신	-9.82132
▁귀여워요	-9.82183
▁다음과	-9.82187
▁아니라서	-9.82247
느라	-9.82254
▁존	-9.82277
▁정사이즈	-9.82317
▁많	-9.82328
▁친절하시고	-9.82375
▁약한	-9.82403
▁마치	-9.8241
뭐	-9.82461
▁문학	-9.82468
▁등에	-9.82471
▁각질이	-9.8249
떡	-9.82495
▁발이	-9.82509
▁마니	-9.82533
▁샤워	-9.82588
▁기준	-9.82668
▁땅	-9.82699
▁특유의	-9.82732
▁유용하게	-9.82733
▁펴	-9.82749
▁음료	-9.82788
▁발색도	-9.8279
▁샀	-9.82802
팅	-9.82984
▁중입니다	-9.83083
▁터	-9.83132
▁봉지	-9.83174
쓸	-9.83222
▁나눠	-9.83287
▁그나마	-9.8329
▁잡아	-9.83291
▁브라운	-9.83298
▁생수	-9.83313
렸다	-9.83338
▁끼	-9.83349
▁작품	-9.83356
▁설탕	-9.83359
렌	-9.83389
나봐요	-9.8344
▁모공	-9.83441
▁잇	-9.8348
하다는	-9.83491
▁취	-9.83504
▁딱이네요	-9.83562
▁소개	-9.83603
▁마련	-9.83655
케이스	-9.83665
▁추천으로	-9.8367
▁칼	-9.83752
필	-9.83753
주면	-9.83759
▁구입할	-9.83821
▁예상	-9.83872
▁예술	-9.83883
▁받았는데	-9.83888
▁어두운	-9.83916
▁모르고	-9.83925
▁상태로	-9.83978
▁독립	-9.83986
드는	-9.83987
▁산건데	-9.84003
▁것입니다	-9.84031
▁개씩	-9.8405
패	-9.84111
▁통일	-9.84206
▁이제품	-9.84207
죽	-9.84292
풀	-9.84306
자마자	-9.84362
▁매장에서	-9.84395
▁끝에	-9.84409
위에	-9.84549
▁하셔서	-9.84559
하니까	-9.84606
▁이쁘게	-9.84652
▁판단	-9.84695
▁공간	-9.84701
▁운영	-9.84709
▁되었는데	-9.84793
▁업	-9.84941
▁다른제품	-9.84943
▁잡	-9.84986
▁사용해서	-9.85043
▁그래	-9.8506
▁소음이	-9.85168
▁달지	-9.85249
하였으며	-9.85257
싸	-9.85322
딩	-9.85338
▁이것도	-9.85358
▁게다가	-9.85367
▁실리콘	-9.85398
자로	-9.85437
▁구입하게	-9.85473
▁말할	-9.85488
선물	-9.85494
▁단지	-9.85494
▁중에서	-9.85525
지네요	-9.85537
바르고	-9.85552
분이	-9.85574
▁아닌가	-9.8558
▁올해	-9.85582
▁년부터	-9.8559
혀	-9.85623
▁할때	-9.85649
▁먹게	-9.85668
샀어요	-9.8568
▁않다	-9.85696
▁재질이	-9.85726
▁편리합니다	-9.85763
가요	-9.85799
▁컨실러	-9.85817
▁초기	-9.85837
▁두꺼운	-9.85856
▁축구	-9.85892
▁양은	-9.85928
과의	-9.85946
▁시원하게	-9.85953
왔네요	-9.85972
▁구입해	-9.86012
▁발표	-9.86032
거랑	-9.86111
▁튼튼한	-9.86119
▁분리	-9.86267
▁변경	-9.8632
▁마감	-9.86333
▁효과도	-9.86397
▁마시	-9.86402
▁아니네요	-9.86517
▁어머니가	-9.86528
▁오뚜기	-9.86576
▁뿌리	-9.86602
▁따뜻한	-9.86604
▁음질	-9.86657
▁빠른배송에	-9.86679
▁뜨	-9.86693
▁아마	-9.86725
없어요	-9.86859
책	-9.86892
시는	-9.86927
▁괜찮	-9.86938
▁소리도	-9.86955
▁빼고는	-9.86963
듯이	-9.86991
▁그것이	-9.87073
▁경험	-9.87078
오는	-9.87103
▁지지	-9.87132
았어요	-9.87133
▁필요가	-9.87148
데요	-9.87161
▁얼른	-9.87193
뿐	-9.87228
오일	-9.87264
회사	-9.87305
▁가죽	-9.87351
▁밑	-9.87366
▁현실	-9.87391
▁부담	-9.87413
▁어찌	-9.87425
▁강화	-9.87437
▁이와	-9.87442
▁노력	-9.87451
▁후보	-9.87467
▁기계	-9.87504
▁그것을	-9.87556
하더라구요	-9.87617
▁풍	-9.87635
인것	-9.87666
▁아직도	-9.87737
▁딱이에요	-9.87748
들에	-9.87754
권을	-9.87757
▁의미	-9.87813
▁수정	-9.87839
▁부탁	-9.87899
▁깔끔해서	-9.87902
▁나머지	-9.87928
냄새가	-9.87928
▁혹시나	-9.87942
▁어쩔	-9.87953
었네요	-9.88017
▁개가	-9.88102
▁배터리	-9.88108
▁소스	-9.88112
▁이용하고	-9.88157
▁역할을	-9.88167
▁크기는	-9.88178
▁사먹는	-9.88193
▁짜리	-9.88197
▁맛을	-9.88285
▁선거	-9.88306
제품은	-9.88384
▁있으나	-9.88412
겁니다	-9.88431
▁하나가	-9.88499
▁변화	-9.88526
▁형성	-9.88539
색상	-9.88559
▁튼튼해서	-9.88655
▁지속력도	-9.88673
▁건강한	-9.88706
▁곳이	-9.8872
▁추천해요	-9.88749
▁외국	-9.88806
갑	-9.88838
굿	-9.88855
하시는	-9.88876
▁있도록	-9.88883
▁냉동실에	-9.88886
▁뭘	-9.88925
▁월드컵	-9.8896
▁아이스팩	-9.88967
라인	-9.89042
▁상태도	-9.89049
▁증가	-9.89058
▁사게	-9.89068
하진	-9.89093
▁그것	-9.89104
▁떼	-9.89137
▁학생	-9.89151
과는	-9.89173
▁적고	-9.89233
▁쓰고있습니다	-9.89234
▁천연	-9.89246
▁겸	-9.89249
▁엄	-9.8926
패드	-9.89262
▁좋게	-9.89264
쓰다가	-9.89285
▁떨어지는	-9.89374
▁점을	-9.89458
▁쓸수	-9.89481
▁사면	-9.89522
▁혼	-9.89556
스는	-9.89559
▁용도로	-9.89559
향도	-9.89574
▁저렴하네요	-9.89607
▁사상	-9.89616
▁시장	-9.89635
찰	-9.89641
▁차량	-9.89653
▁식탁	-9.89671
▁그들은	-9.89694
▁안내	-9.89781
▁알겠지만	-9.8981
▁튼튼해요	-9.89832
▁작성	-9.89835
▁보이고	-9.89917
후에	-9.89943
▁신청	-9.89952
상을	-9.90036
▁정신	-9.90069
느낌이	-9.90102
▁넉넉하게	-9.90129
▁완	-9.90187
▁신라면	-9.90197
▁해당	-9.90208
▁빠져	-9.90215
▁말씀	-9.90267
▁쉬	-9.90274
▁왔구요	-9.90301
▁생기	-9.90312
▁구입하고	-9.90341
▁있었지만	-9.9036
▁지속력	-9.9038
▁발림성이	-9.90398
써	-9.90404
돈	-9.90421
▁단점	-9.90445
▁오렌지	-9.90457
▁털	-9.90463
▁자극적이지	-9.90475
▁건성	-9.90525
▁가슴	-9.9054
▁만드는	-9.90545
▁부산	-9.90662
▁시도	-9.90731
▁자리	-9.90758
▁배송과	-9.90762
▁괜찮았어요	-9.90764
▁우리의	-9.90787
▁아빠	-9.90791
샀	-9.90824
▁미국의	-9.90832
▁지구	-9.90855
▁우리집	-9.90856
해주셔서	-9.90859
▁깔끔하니	-9.90865
▁그렇고	-9.90881
빛	-9.9091
효과	-9.90912
▁써보진	-9.90919
▁대로	-9.90951
상태	-9.90959
▁내부	-9.91015
농	-9.91052
▁찬	-9.91088
▁젤리	-9.91113
▁곳에서	-9.91156
▁넘어	-9.91164
▁지나면	-9.91196
▁영양	-9.91206
커버	-9.91217
▁잘쓸께요	-9.91218
입니당	-9.91276
▁차지	-9.91305
▁냉장고에	-9.91324
푸	-9.91332
▁심해서	-9.91383
▁모습을	-9.91406
나고	-9.91407
▁분석	-9.91409
▁북한	-9.91409
▁흰색	-9.91437
▁귀엽고	-9.91481
▁날이	-9.91495
▁촉촉함이	-9.91562
▁캔	-9.91567
▁로마	-9.91586
▁자체는	-9.91634
▁사람들	-9.91642
받아	-9.9166
▁못하는	-9.91684
▁수고하세요	-9.91782
▁맛나게	-9.91801
려면	-9.91816
▁기사님	-9.91818
되면서	-9.91818
▁건설	-9.91831
줘서	-9.91838
▁한가지	-9.9184
▁굳이	-9.91844
▁사람의	-9.91942
▁이들	-9.91955
기만	-9.91993
▁나를	-9.92016
▁진출	-9.92035
▁먹은	-9.92039
▁일까지	-9.9207
▁왔다	-9.92097
▁상대	-9.92154
▁주요	-9.92156
▁이유는	-9.9217
▁빼고	-9.92171
▁여드름	-9.92213
▁정책	-9.9222
▁고급스럽고	-9.92245
▁구매할게요	-9.92273
▁한동안	-9.92286
▁꺼	-9.92302
▁먹을게요	-9.92319
▁때도	-9.92347
겠네요	-9.92432
▁음질도	-9.92448
뜨	-9.92463
추천	-9.92534
▁갈아	-9.92584
사의	-9.92613
▁했던	-9.92618
▁장점	-9.92655
▁홈	-9.92661
▁굴	-9.92664
밤	-9.92698
▁한끼	-9.92757
▁표시	-9.92835
▁위하여	-9.92856
▁펄	-9.9288
▁빨랐습니다	-9.92887
▁섭취	-9.92899
▁깔끔해요	-9.92913
▁주문할	-9.92918
▁저렴해요	-9.92993
▁흡수가	-9.93001
▁제공	-9.9312
▁계획	-9.93132
▁드디어	-9.93141
▁끓여	-9.93182
▁비싸서	-9.93184
▁쓰던거	-9.93198
▁먹고있습니다	-9.93217
▁저한테는	-9.93266
▁찾고	-9.93315
▁관계	-9.93322
▁있었고	-9.93326
▁써보	-9.93328
치는	-9.93375
▁영상	-9.93376
▁요새	-9.93395
▁애기	-9.93416
▁전국	-9.93449
▁들어가서	-9.93525
▁사용한지	-9.93541
▁느낌이라	-9.93591
▁들어있어서	-9.93624
▁핏	-9.93725
▁재구매했습니다	-9.9374
▁편입니다	-9.93806
▁그린	-9.93829
▁때가	-9.93875
▁지성	-9.93878
▁학	-9.9389
▁전문	-9.93927
▁맥	-9.93933
▁년까지	-9.93934
가성비	-9.93935
▁우려	-9.93941
▁스티커	-9.93956
이자	-9.93969
▁좋지만	-9.94007
▁정착	-9.94023
교육	-9.94056
템	-9.94092
▁가까운	-9.94102
▁천원	-9.94153
▁빠르구요	-9.94189
런	-9.94213
역시	-9.94229
▁특	-9.94264
▁키엘	-9.94317
스러운	-9.94347
샴푸	-9.9437
싶	-9.94443
▁어려운	-9.94467
▁생겨서	-9.94481
존	-9.9458
▁부들부들	-9.94595
이었던	-9.9463
▁담아	-9.94643
▁물품	-9.94673
▁하나로	-9.94695
▁깨져서	-9.94743
끈	-9.94791
▁신문	-9.94809
▁쇼파	-9.94814
▁의한	-9.94824
▁고객	-9.94852
▁냉장고	-9.94906
▁불안	-9.94913
스킨	-9.94929
거리는	-9.94952
▁경찰	-9.94964
▁이정도면	-9.94977
▁대체	-9.95003
궁	-9.9505
▁제품만	-9.95075
▁녹아서	-9.95087
▁인치	-9.9509
▁선수	-9.95112
압	-9.95136
▁튼튼합니다	-9.95152
▁대회	-9.95155
▁성분도	-9.95166
▁딸이	-9.95183
▁팬	-9.95203
▁최대	-9.95203
좋아서	-9.95278
함을	-9.95294
▁뒤로	-9.9536
훈	-9.95371
▁감이	-9.95374
▁최고네요	-9.95384
▁카메라	-9.9549
후기	-9.95605
▁시대	-9.95648
▁꼬	-9.95681
겠다고	-9.95695
▁이쁜	-9.95718
▁숨	-9.9574
▁해외	-9.95772
▁거예요	-9.95797
께서	-9.95809
▁안하고	-9.9581
▁정확한	-9.95812
▁부드러워서	-9.95834
▁구매하였습니다	-9.95852
▁되니	-9.95902
▁눈을	-9.96004
▁포장상태	-9.96006
▁사용하다가	-9.96009
되기	-9.96023
▁답	-9.96039
▁부터	-9.96056
사람	-9.96057
였	-9.96119
▁테	-9.9613
▁의심	-9.96146
수를	-9.96162
▁동일	-9.96187
▁살이	-9.96271
▁그들의	-9.96353
▁들었어요	-9.96361
▁물티슈	-9.96371
▁수납	-9.96377
았는데	-9.96417
▁맘	-9.96437
위원회	-9.96478
▁손잡이	-9.96525
▁거치대	-9.96601
▁온도	-9.96604
집에	-9.96613
▁무리	-9.96615
▁타서	-9.96696
▁보입니다	-9.9671
▁투자	-9.96712
함으로써	-9.96714
▁작네요	-9.96733
셔	-9.96745
▁떠나	-9.96757
▁격	-9.96765
▁남성	-9.96774
슈	-9.96775
▁추진	-9.96787
▁사용은	-9.96803
▁있는지	-9.96885
▁산업	-9.96923
▁걱정이	-9.96932
해지는	-9.9695
▁베이지	-9.96993
듯합니다	-9.97056
▁대해서	-9.97135
▁꼼꼼한	-9.97179
▁식품	-9.9719
▁이제는	-9.97204
했었는데	-9.97207
하려	-9.97215
해진	-9.97279
▁타입	-9.97282
듯한	-9.97421
▁적어	-9.9745
엄청	-9.9746
▁수입	-9.97467
▁데일리로	-9.97476
▁낮은	-9.97494
▁높	-9.97496
▁은은하게	-9.97497
했으면	-9.97511
▁업체	-9.97609
제품이	-9.97633
하신	-9.97659
▁흰	-9.97706
▁지속력이	-9.97721
▁지배	-9.97756
▁만에	-9.97793
▁분이	-9.97796
▁화장이	-9.97805
▁생긴	-9.97863
▁국물	-9.97873
▁고장	-9.979
▁트러블도	-9.97919
는것	-9.9798
▁빨래	-9.98007
▁군사	-9.98046
맛크기유효기간포장배송상태	-9.98085
▁항	-9.98097
▁똑같은	-9.98129
시고	-9.98172
▁거리	-9.98179
겠다	-9.98214
▁보이지	-9.98216
▁휘	-9.98229
▁따르면	-9.98233
▁만나	-9.98244
▁색은	-9.9825
▁영양제	-9.98309
▁구멍	-9.98372
▁정상	-9.98378
▁유통기한은	-9.98402
택	-9.98409
바로	-9.98422
었	-9.98473
▁상자	-9.98534
▁설명서	-9.98579
▁이론	-9.98602
▁빵	-9.98654
▁마을	-9.98657
▁안심	-9.98691
냐고	-9.98737
▁제품보다	-9.98789
▁과학	-9.98832
▁그저	-9.98852
▁거울	-9.98854
▁아주아주	-9.98924
▁시원하고	-9.98945
량이	-9.98965
▁마스크	-9.99009
▁간단히	-9.99048
▁마트	-9.99075
▁일만에	-9.99108
수록	-9.9912
▁아니에요	-9.99191
지역	-9.99206
▁받아보니	-9.99235
검	-9.99238
회의	-9.9925
▁언어	-9.99263
▁일본의	-9.99279
▁많네요	-9.9929
아니	-9.99312
▁이름을	-9.99313
▁싶	-9.99316
▁괜찮은것	-9.99364
▁바디	-9.99367
으로서	-9.99383
말고	-9.99386
였습니다	-9.99396
▁좋았구요	-9.9941
▁톡톡	-9.99437
▁틀	-9.9945
▁느낌을	-9.99475
▁매트리스	-9.9951
▁전자	-9.99516
▁칠	-9.99541
징	-9.99625
▁말한다	-9.99687
것같습니다	-9.99733
장은	-9.99744
▁맛잇어요	-9.99755
해져서	-9.99777
▁코로나	-9.99781
▁가까이	-9.99782
▁히	-9.99797
▁동네	-9.99879
▁가정	-10
▁푸	-10.0003
▁정도의	-10.0005
하시고	-10.0005
홍	-10.0005
▁포함	-10.0008
▁모르겠는데	-10.0013
▁구워	-10.0016
▁시스템	-10.0018
눈	-10.002
▁문제를	-10.0021
▁뜯어	-10.0021
줘야	-10.0024
▁젊은	-10.0025
▁써보는데	-10.0029
▁행동	-10.0032
▁향기가	-10.0035
처음	-10.0038
▁종류	-10.0039
▁자체	-10.0042
▁베이스	-10.0043
▁논	-10.0045
▁세상	-10.0046
▁브러쉬	-10.0046
▁페	-10.0053
▁성능도	-10.0058
▁작아	-10.006
▁받았네요	-10.0063
넣고	-10.0063
▁돌아가	-10.0065
항상	-10.0069
▁언론	-10.007
▁분위기	-10.0073
▁시키	-10.0073
▁핵	-10.0077
구매했어요	-10.0082
▁이용하는	-10.0087
▁겉	-10.009
▁해주시고	-10.0094
▁상태가	-10.0099
해지고	-10.0105
▁이뻐서	-10.0111
▁모양	-10.0117
▁좋다고해서	-10.0117
▁사과	-10.012
▁아쉽습니다	-10.012
▁탄	-10.0123
클	-10.0124
▁깊은	-10.0124
▁자동차	-10.0126
봄	-10.0131
▁부족한	-10.0132
▁힘을	-10.0133
▁시리즈	-10.014
▁지나	-10.0145
▁마시면	-10.0145
▁구분	-10.0152
▁주름	-10.0154
없어	-10.0156
▁생각입니다	-10.0156
▁조정	-10.0158
▁배우	-10.0159
▁비싸지만	-10.0161
▁적당	-10.0162
▁신기	-10.0166
▁콩	-10.0166
것같네요	-10.0175
▁폐	-10.0178
▁중간에	-10.018
▁배송빨라요	-10.0183
▁놓	-10.0184
▁행복	-10.0186
▁옥	-10.0189
▁주말	-10.0206
▁달려	-10.0209
▁뿌려	-10.021
▁찍어	-10.0212
▁성장	-10.0213
▁저희집	-10.0213
되요	-10.0216
▁나사	-10.0219
▁교수	-10.0219
▁싶습니다	-10.022
▁빠	-10.0222
▁발리고	-10.0222
▁했더니	-10.0227
▁전달	-10.0228
▁버튼	-10.023
그러	-10.0235
셔서	-10.0242
▁얼	-10.0244
▁어렵지	-10.0245
▁소재	-10.0246
▁어린	-10.0248
▁닭가슴살	-10.0248
▁두부	-10.025
척	-10.0254
▁고민하다	-10.0255
써요	-10.026
▁파손	-10.026
▁드렸는데	-10.026
▁스트레스	-10.0262
▁공개	-10.0262
계속	-10.0262
▁각종	-10.0267
득	-10.027
▁언니	-10.0271
물이	-10.0272
얼	-10.0277
▁걸로	-10.0278
것처럼	-10.0279
▁심하게	-10.0281
▁대충	-10.0283
그런데	-10.0286
▁용기	-10.0287
▁반찬	-10.0292
▁왼쪽	-10.0294
▁선물했는데	-10.0294
왔다	-10.0307
▁인테리어	-10.0309
업체	-10.0312
렁	-10.0314
▁공동	-10.0318
▁어묵	-10.0319
칭	-10.0328
받은	-10.0329
겠	-10.0331
▁주의	-10.0334
습니당	-10.0336
어도	-10.0337
▁입에	-10.0341
▁삽니다	-10.0345
▁구매해봤는데	-10.0346
▁믿음이	-10.0349
▁이때	-10.0359
▁소음	-10.0363
지않아서	-10.0368
릭	-10.037
▁좋았는데	-10.0374
▁아님	-10.0376
▁사드렸는데	-10.0378
▁꿈	-10.0383
▁중심으로	-10.0387
시킬	-10.0394
▁그것도	-10.04
▁분명	-10.0401
▁옆	-10.0403
▁피자	-10.0404
▁아파트	-10.0405
해주시고	-10.0406
▁충전도	-10.0407
▁방지	-10.0407
▁식사	-10.0408
▁사실을	-10.0409
했다는	-10.0411
▁먹기에	-10.0414
돼서	-10.0427
▁충전기	-10.043
▁그녀의	-10.0431
봅니다	-10.0432
▁대응	-10.0434
▁단점이	-10.0436
더라도	-10.0438
가루	-10.0438
▁같구요	-10.0439
▁감자	-10.0443
▁뽁뽁이	-10.0444
▁많다	-10.0445
▁하얀	-10.0449
▁실시	-10.0454
▁제기	-10.0457
▁소음도	-10.0458
▁없었어요	-10.0464
▁좋을거	-10.047
▁옷이	-10.047
▁따뜻하고	-10.0473
▁잘쓰고있어요	-10.0474
▁안되	-10.0474
▁혁명	-10.0475
▁대중	-10.0478
문제	-10.0481
칸	-10.0484
▁뜻	-10.0485
▁마감이	-10.0486
▁마실	-10.0492
▁위치	-10.0492
씁니다	-10.0498
▁사용후	-10.0505
▁품질은	-10.0508
▁과정에서	-10.051
효	-10.0512
기능	-10.0513
▁등록	-10.0519
▁받았	-10.052
▁안되고	-10.0522
▁그를	-10.0525
▁애용하고	-10.0528
▁산것	-10.053
수는	-10.0532
▁청소기	-10.0534
▁몸을	-10.0534
▁액정	-10.0534
▁좋을듯	-10.0542
지않아	-10.0549
뒤	-10.0552
▁이유	-10.0553
선이	-10.0555
▁포장은	-10.0558
타입	-10.056
▁하루종일	-10.0563
나라	-10.0563
▁오른쪽	-10.0565
▁이라	-10.0574
▁확대	-10.0584
▁커버력	-10.0586
▁열린	-10.0587
▁듯한	-10.0588
▁공식	-10.0592
▁판매자님	-10.0602
▁거부	-10.061
▁노트북	-10.0611
▁등등	-10.0615
▁비교적	-10.0617
제를	-10.0621
대요	-10.0622
▁먹어보니	-10.0625
일이	-10.0625
톤	-10.0627
▁경쟁	-10.063
▁색감	-10.0633
▁피부인데	-10.0635
▁괜찮아	-10.0636
▁인간의	-10.064
문화	-10.0643
중입니다	-10.0644
▁끈	-10.0653
▁비해서	-10.0661
▁단점은	-10.0665
▁공기	-10.0667
▁시간에	-10.0671
▁강화유리	-10.0678
▁옮겨	-10.0678
시에	-10.068
▁적어서	-10.0685
되었는데	-10.0686
젤	-10.0687
▁땀	-10.0688
▁훌륭합니다	-10.0695
▁일찍	-10.0696
되니	-10.0696
▁응	-10.0699
▁백화점	-10.0699
▁보여서	-10.0701
▁재질도	-10.0702
맞	-10.0703
최고	-10.0703
▁붙이기	-10.0706
▁수밖에	-10.0711
▁초코	-10.0718
김치	-10.0718
겸	-10.0722
▁민감성	-10.0722
▁좋은것같아요	-10.073
▁충	-10.0741
▁본품	-10.0742
▁친절한	-10.0757
력을	-10.0759
▁세럼	-10.0762
▁부분에	-10.0763
▁겨우	-10.0765
스터	-10.0767
있다	-10.0772
▁괜히	-10.0775
양이	-10.078
▁등으로	-10.0781
▁보여요	-10.0783
▁인기	-10.0784
▁숙	-10.0787
▁벽	-10.0788
저렴하게	-10.079
▁이탈리아	-10.0791
▁있구요	-10.0792
굴	-10.0793
▁답변	-10.0796
▁전통	-10.0799
하면서도	-10.0804
왔는데	-10.0807
봐도	-10.081
▁턱	-10.0813
보는	-10.0822
으니까	-10.0825
우유	-10.0828
▁꾸	-10.083
▁이상의	-10.083
▁떨	-10.0831
▁바디워시	-10.0834
▁되었네요	-10.0838
▁못했다	-10.0839
▁기대됩니다	-10.084
▁대용으로	-10.0841
▁외부	-10.0856
▁사용을	-10.0861
▁다른건	-10.0861
▁잘안	-10.0862
▁대체로	-10.0869
▁잘되네요	-10.0869
▁대해서는	-10.0871
▁기대를	-10.0872
▁곡	-10.0873
▁칭찬	-10.0875
▁깨끗하고	-10.0876
하지않고	-10.0877
덜	-10.088
▁놀	-10.088
▁빠르	-10.0882
▁했	-10.0883
▁외출	-10.0886
▁왠지	-10.0892
쌀	-10.0895
▁강추입니다	-10.0895
▁여기에	-10.0899
지지	-10.0899
▁물건이	-10.09
▁부인	-10.0901
▁모양이	-10.0901
▁된다고	-10.0908
▁피지	-10.091
▁생각하면	-10.0914
간의	-10.0915
놓	-10.0916
인가요	-10.0924
▁이상한	-10.0924
▁이날	-10.0926
▁열어	-10.0933
▁흡수도	-10.0936
▁다르네요	-10.0942
▁둔	-10.0952
▁콜라	-10.0953
▁건데	-10.0954
▁머리를	-10.0955
욤	-10.0956
▁신선하고	-10.096
▁승리	-10.0963
진다	-10.0967
▁고민했는데	-10.0974
응	-10.0978
프로	-10.0979
▁나오고	-10.0985
▁거치	-10.0993
▁감독	-10.0994
▁정확히	-10.1
▁소비자	-10.1001
▁간편	-10.1002
▁따른	-10.1004
가격대비	-10.1006
시키고	-10.1006
▁돼서	-10.1007
먼	-10.1008
▁막상	-10.101
▁좋고요	-10.101
으로써	-10.1013
▁드라마	-10.1013
제품이라	-10.1013
▁거야	-10.1016
▁잘되어	-10.1016
▁싫어	-10.1016
▁없구요	-10.1017
시켰다	-10.1017
▁담에	-10.1018
▁건물	-10.1022
▁핫도그	-10.1022
▁타고	-10.1022
▁사용하니	-10.1026
▁도입	-10.1036
대를	-10.1037
▁성인	-10.1046
▁연기	-10.1049
이기도	-10.105
킹	-10.105
▁잘쓰고있습니다	-10.1057
▁보지	-10.1058
다리	-10.1062
▁보들보들	-10.1066
빠르고	-10.1067
조아요	-10.1069
▁들어간	-10.1074
▁마시기	-10.1076
▁사용하지	-10.1077
▁물건을	-10.1078
▁옷을	-10.108
▁괜찮을	-10.108
▁색감이	-10.1088
▁만족스러운	-10.109
컬러	-10.1091
▁들어있는	-10.11
▁단체	-10.1101
▁형태	-10.1108
엄	-10.1108
꼬	-10.1112
▁팩트	-10.1112
▁마르	-10.1113
▁마리	-10.1116
▁장난	-10.1117
먹을	-10.1127
▁어차피	-10.1131
▁서랍	-10.1131
▁앞에서	-10.1139
▁기대가	-10.114
▁틴트	-10.1146
▁그렇지만	-10.115
▁생명	-10.1152
▁세대	-10.1155
▁바람이	-10.1157
▁먹던거라	-10.1158
▁그릇	-10.1161
▁양쪽	-10.1173
▁이미지	-10.1176
▁블루	-10.1176
▁상태배송	-10.1179
▁좋아졌어요	-10.1179
▁생각해	-10.1182
▁새우	-10.1182
▁사람을	-10.1185
▁불편한	-10.1186
▁과일	-10.1193
▁올라가	-10.12
▁얇게	-10.12
씨는	-10.12
들고	-10.1204
▁저한테	-10.1205
▁차례	-10.1211
▁사용해도	-10.1213
▁아무튼	-10.1214
▁일부러	-10.1216
▁그만	-10.1216
▁자동	-10.1217
▁당장	-10.1218
▁되었고	-10.1226
빵	-10.1227
▁켜	-10.123
▁빗	-10.1231
▁일부터	-10.1232
▁면이	-10.1236
▁같기도	-10.1236
▁월일	-10.1237
쓰기	-10.1237
▁소리를	-10.124
▁출근	-10.124
▁온라인	-10.1242
▁수준	-10.1244
▁달라요	-10.1245
▁비싸	-10.1248
▁글을	-10.1249
▁됐어요	-10.1252
▁임신	-10.1259
있음	-10.1262
▁맞아	-10.1264
▁경영	-10.1267
몰	-10.1268
거같아서	-10.1274
▁올리	-10.1281
▁하더라구요	-10.1283
▁우주	-10.1285
▁검	-10.1286
▁되요	-10.1287
▁되어있어서	-10.1291
상의	-10.1299
▁후기보고	-10.1301
▁적당해서	-10.1302
▁떨어지	-10.1304
▁종교	-10.1314
가격이	-10.1318
▁성능이	-10.1319
▁선크림	-10.1322
▁기대하고	-10.1325
▁반응	-10.1331
좌	-10.1331
롱	-10.1332
▁결합	-10.1332
조절	-10.1334
▁모르겠고	-10.1337
▁바꾸	-10.134
▁나도	-10.1348
▁넉넉히	-10.1353
▁나지	-10.1357
▁불러	-10.1365
▁그러면	-10.1368
▁쓰기에	-10.1369
▁두가지	-10.1369
▁시험	-10.1372
스타	-10.1374
▁심지어	-10.1378
▁설립	-10.1384
▁우승	-10.1385
립니다	-10.1386
▁마스카라	-10.1386
▁감기	-10.1387
놓은	-10.1389
▁안심하고	-10.1391
▁사야	-10.1393
▁시간을	-10.14
주셔서	-10.1405
▁고양이	-10.1408
▁얼굴을	-10.1409
▁품절	-10.1409
▁조건	-10.1411
▁주변에	-10.1412
▁예를	-10.1417
▁알아	-10.1418
▁만족해	-10.1419
▁일은	-10.1419
▁하늘	-10.142
▁완벽	-10.142
▁평균	-10.1422
탁	-10.1431
▁늦	-10.1434
쓰면	-10.1435
▁맞지	-10.1438
▁명절	-10.1438
다시	-10.1439
▁슈	-10.1441
것같아	-10.1444
▁예쁘	-10.1444
▁유명	-10.1449
▁바람에	-10.1451
▁과거	-10.1451
▁빠름	-10.1452
▁낮	-10.1455
▁사기	-10.1455
▁도로	-10.1461
▁고속충전	-10.1468
▁그러한	-10.1468
▁버리고	-10.1468
▁친절	-10.1469
▁붉은	-10.1476
▁인용	-10.1478
거같네요	-10.1483
▁나니	-10.1485
▁모습	-10.1488
▁달라	-10.149
▁내일	-10.1491
▁귀찮	-10.1491
▁바다	-10.1493
▁추석	-10.1493
▁그날	-10.1494
이었습니다	-10.1497
율	-10.1498
같	-10.1499
선물로	-10.1501
▁일정	-10.1502
접	-10.1505
▁때까지	-10.1507
▁쪽	-10.1515
▁딱딱	-10.1515
▁성능은	-10.1518
▁리필	-10.1518
세트	-10.152
헌	-10.1522
읍니다	-10.1525
▁어디서	-10.1529
보여요	-10.1534
▁치료	-10.1538
▁빨랐구요	-10.1539
▁오전	-10.1539
▁전반적으로	-10.1541
벽	-10.1542
납니다	-10.1545
털	-10.1546
엘	-10.1553
능	-10.1554
▁시켰어요	-10.1557
▁병원	-10.1559
▁잘샀습니다	-10.1563
▁탄산수	-10.1563
▁에어	-10.1565
▁맛나	-10.1572
▁이야기를	-10.1573
▁칸	-10.1576
▁최저가	-10.1579
▁양념	-10.1581
랄	-10.1581
▁운전	-10.1582
할까	-10.1586
인데요	-10.1588
지라	-10.1589
▁취소	-10.1589
▁닭	-10.159
▁누구	-10.1593
▁깨끗한	-10.1596
▁포기	-10.1602
▁드립니다	-10.1605
리스	-10.1606
▁믿고쓰는	-10.1607
듯요	-10.1611
▁있었	-10.1611
▁멋	-10.1616
▁같지만	-10.1617
▁형식	-10.1619
▁찾던	-10.1621
릿	-10.1622
▁간편해서	-10.1623
▁집중	-10.1623
▁고장나서	-10.1626
▁사탕	-10.1627
▁힘든	-10.1629
먹어요	-10.1634
집에서	-10.1641
햇는데	-10.1641
주시고	-10.1641
▁모르겠습니다	-10.1644
▁자고	-10.1645
▁엄청난	-10.1645
▁파운데이션	-10.1653
▁생각한	-10.1654
▁도착해서	-10.1655
▁먹어보진	-10.1656
▁있는거	-10.1658
관계	-10.1658
▁먹어본	-10.1662
▁아이들도	-10.1667
▁그렇	-10.1669
▁하시	-10.1671
▁규모	-10.1672
▁반드시	-10.1674
학교	-10.1674
▁사건	-10.1674
기대	-10.168
▁날씨가	-10.1681
▁거기에	-10.1681
▁돈을	-10.1682
▁보니까	-10.1689
▁첨엔	-10.169
▁먹을께요	-10.17
흥	-10.1702
▁주려고	-10.1702
만족도성능사용편의성	-10.1703
▁맛있어	-10.1704
낸	-10.1705
▁좋겠죠	-10.1711
▁개혁	-10.1718
▁지속	-10.1719
▁소속	-10.1727
▁늦었지만	-10.1737
▁권력	-10.1741
▁맛나네요	-10.1744
▁오래된	-10.1744
핏	-10.1749
▁했고	-10.175
건조	-10.1751
겠지요	-10.1754
람	-10.1763
▁알려	-10.1763
▁제시	-10.1766
▁드라이	-10.1768
▁좁은	-10.1768
▁작지만	-10.1777
▁한꺼번에	-10.1786
보내	-10.1787
해보	-10.1787
▁롯데	-10.1788
▁어른	-10.1791
▁거실	-10.1794
값	-10.1796
이라면	-10.1797
▁휴대폰	-10.1798
▁갔다	-10.1803
▁통해서	-10.1804
▁이들은	-10.1808
▁머릿결이	-10.1812
▁점에서	-10.1813
▁내용	-10.1816
▁집단	-10.1824
▁동영상	-10.1825
▁낙	-10.1826
이야	-10.1827
방에	-10.183
쪽에	-10.1832
▁리뷰를	-10.1834
하겠습니다	-10.1835
▁떨어지면	-10.184
정부	-10.184
만원	-10.1841
▁갑니다	-10.1841
짓	-10.1842
▁찌	-10.1847
해주	-10.1847
▁이용할	-10.185
▁좋아지는	-10.185
욕	-10.1858
▁진작	-10.1859
▁동원	-10.1859
▁축	-10.1861
▁저렴합니다	-10.1863
▁펌핑	-10.1863
▁거쳐	-10.1866
▁개나	-10.1867
▁전투	-10.1868
▁제조일자	-10.1869
▁달러	-10.1873
까지는	-10.1873
▁겁니다	-10.1876
▁현상	-10.1876
▁참가	-10.1878
▁견고하고	-10.1883
물을	-10.1884
▁동물	-10.1887
리를	-10.1887
▁바를때	-10.1889
▁흔들	-10.189
▁맥주	-10.1892
에게는	-10.1893
으로는	-10.1898
▁시켜서	-10.1899
▁머리카락	-10.19
▁대용량이라	-10.1906
깨	-10.1906
싱	-10.191
이요	-10.1915
나니	-10.1919
▁흠	-10.192
▁큽니다	-10.1922
▁규정	-10.1923
▁시기	-10.1928
화를	-10.1929
▁저렴한데	-10.1933
▁만약	-10.1934
▁각질제거	-10.1936
▁특별	-10.1937
▁기타	-10.1943
▁몰	-10.1944
였고	-10.1946
▁않았습니다	-10.1948
▁분사	-10.1948
▁핏이	-10.1949
▁포장상태도	-10.1949
▁분들이	-10.1951
▁케이스도	-10.1952
▁어깨	-10.1955
▁못했지만	-10.1959
왔습니다	-10.196
▁클	-10.1965
임을	-10.197
▁피부를	-10.1976
▁겁나	-10.1977
이건	-10.1981
▁묽은	-10.1983
▁사용전이지만	-10.1985
▁하세요	-10.1988
▁덕	-10.1989
▁의식	-10.1992
▁끈적임	-10.1997
▁닦	-10.2001
사회	-10.2002
하는게	-10.2002
▁세워	-10.2003
▁붙어	-10.2004
▁인쇄	-10.2005
했음	-10.2006
해보니	-10.2007
▁시절	-10.2011
리가	-10.2011
▁고급	-10.2011
햇	-10.2012
하였으나	-10.2019
믿고	-10.2026
▁들어가는	-10.2026
맨	-10.2027
▁무난하고	-10.2031
을까	-10.2031
▁앨범	-10.2033
▁사진은	-10.2033
▁그랬어요	-10.2034
▁깔	-10.2035
랍니다	-10.2044
▁훨	-10.2048
▁그런거	-10.2053
▁반복	-10.2054
▁특별한	-10.2054
하기로	-10.2055
▁뿐만	-10.2055
▁이것이	-10.2058
▁아프	-10.2059
끝	-10.2064
꾸	-10.2068
소스	-10.207
▁십	-10.2071
▁안나	-10.2071
▁사려고	-10.2073
▁굽	-10.2075
▁골드	-10.2076
콘	-10.2077
닥	-10.2078
되었으며	-10.2079
▁대형	-10.2079
▁않았	-10.2079
▁이쁘	-10.2081
편하고	-10.2094
▁오르	-10.2096
가지고	-10.2096
▁먹을때	-10.2099
▁환불	-10.2099
단체	-10.2099
▁뿌리고	-10.21
▁들었습니다	-10.21
▁배가	-10.2101
▁의원	-10.2102
튼	-10.2103
와는	-10.2104
▁잡고	-10.2104
▁좋은듯	-10.2105
▁대부분의	-10.2114
▁머리카락이	-10.2114
려요	-10.2116
▁이마트	-10.2119
▁넣으면	-10.2119
▁키가	-10.212
▁매장	-10.2122
전을	-10.2124
▁소파	-10.2124
해주는	-10.2131
▁제품이네요	-10.2137
▁쓰다	-10.214
▁당일	-10.2141
시킨	-10.2141
놀	-10.2143
감을	-10.2145
▁대하여	-10.2146
▁구성이	-10.2146
▁결제	-10.2149
▁난리	-10.2149
성의	-10.215
▁꼼꼼	-10.2151
▁강아지	-10.2153
인이	-10.2155
윤	-10.2155
대학	-10.2157
▁짧	-10.216
▁모르는	-10.2163
▁상담	-10.2164
▁맛입니다	-10.2165
▁매운	-10.2172
▁땐	-10.2173
▁판매자	-10.2186
▁튼튼하게	-10.2187
▁물질	-10.2191
먹어도	-10.2195
▁출	-10.2198
▁검은	-10.2201
▁주기	-10.2204
▁위험	-10.2206
데이	-10.2206
▁향기도	-10.2211
▁무게	-10.2222
▁프	-10.223
▁다양하게	-10.2234
▁출연	-10.2237
▁척	-10.2237
▁다섯	-10.2238
묘	-10.2241
하기에	-10.2244
▁큰거	-10.2245
▁별로네요	-10.2245
▁익	-10.2247
▁집안	-10.2249
▁세탁기	-10.226
▁모르지만	-10.2265
했구요	-10.2269
▁맵	-10.2269
▁재료	-10.227
▁살고	-10.2273
▁터져서	-10.2276
▁베트남	-10.2277
▁대상	-10.2277
▁끈적이지	-10.228
▁학년	-10.2284
▁홀	-10.2285
▁무난합니다	-10.2286
▁경기에서	-10.229
▁단맛이	-10.229
▁상황	-10.229
하실	-10.2292
갔다	-10.2293
▁오랜	-10.2295
▁은행	-10.2298
▁년간	-10.2304
솔	-10.2304
칼	-10.2306
적이고	-10.2307
▁충전이	-10.2309
▁일정도	-10.2309
▁전부터	-10.2311
폰	-10.2312
▁먹어봐야	-10.2312
▁아무런	-10.2313
왜	-10.2324
▁경우는	-10.2327
▁찍	-10.2327
쓰는데	-10.2332
싸게	-10.2333
▁사다	-10.2334
▁침	-10.2336
▁쓰레기	-10.2338
▁돼요	-10.2339
▁달달한	-10.234
▁국산	-10.2343
▁지난번에	-10.2347
▁없었습니다	-10.2351
▁방법	-10.236
▁특별히	-10.2364
▁사회적	-10.2364
▁캐	-10.237
사고	-10.2371
▁검정	-10.2374
▁사용해요	-10.2376
선택	-10.2379
▁만족해서	-10.2382
▁물건은	-10.2383
바지	-10.2386
▁총알배송	-10.2394
▁희	-10.2395
▁제차	-10.2398
▁프리	-10.2398
▁수시로	-10.24
▁기관	-10.2401
문학	-10.2404
하려는	-10.2405
까요	-10.2408
▁채워	-10.2409
향은	-10.2415
▁도움	-10.2422
▁가족들	-10.2423
▁공간이	-10.2423
앙	-10.2424
분들	-10.2425
드리	-10.2428
▁월까지	-10.2432
▁낫	-10.2438
▁얇	-10.244
▁전원	-10.244
스가	-10.2442
확	-10.2442
▁맞습니다	-10.2445
▁느낄	-10.2445
▁재구매할	-10.2445
▁다행이	-10.2447
▁얻어	-10.2448
▁로켓배송	-10.2452
것같아서	-10.2457
걱정	-10.246
▁쓸께요	-10.2461
쥬	-10.2466
빨리	-10.2466
▁않은데	-10.247
▁해봤는데	-10.2475
▁색감도	-10.2477
▁가고	-10.2478
▁걸쳐	-10.2481
기관	-10.2485
정리	-10.2485
매트	-10.2486
▁시계	-10.2489
시장	-10.2491
▁이틀만에	-10.2494
써보	-10.2496
▁붙이고	-10.2497
▁쿤달	-10.2506
택배	-10.2513
문을	-10.2513
균	-10.2515
▁내용물이	-10.2516
▁대답	-10.2519
▁샤	-10.252
▁길게	-10.2522
▁촉촉합니다	-10.2523
▁버전	-10.2529
▁영어	-10.2531
렸	-10.2532
▁괜찮다고	-10.2532
▁조금더	-10.2533
▁자리를	-10.2534
▁배송으로	-10.2536
▁딸아이	-10.2537
자주	-10.2537
▁나쁜	-10.2539
▁선정	-10.254
▁신는데	-10.2545
▁은근	-10.2546
▁있긴	-10.2547
▁못해서	-10.2548
▁회전	-10.2548
▁아직까지	-10.2548
▁운	-10.2551
힐	-10.2552
▁더불어	-10.2553
▁맛있는데	-10.2554
▁섀도우	-10.2555
▁해주	-10.2558
▁애용	-10.2559
▁집이	-10.2559
셨	-10.256
▁여유	-10.2562
봐	-10.2568
▁논의	-10.2572
▁잘되서	-10.2572
인의	-10.2576
▁빠른배송과	-10.2577
▁발달	-10.2578
▁않음	-10.2578
먹었는데	-10.2579
▁지속력은	-10.2581
것같	-10.2582
폭	-10.2587
▁공급	-10.2588
▁오리지널	-10.2588
▁상태에서	-10.2589
▁애용합니다	-10.2594
▁기능을	-10.2598
으면서	-10.2599
▁완료	-10.2602
없네요	-10.2603
었지만	-10.2604
▁해석	-10.2604
▁중심	-10.2605
▁생기는	-10.2608
▁단백질	-10.2611
▁부모님이	-10.2612
조립	-10.2613
▁먹어보	-10.2614
▁자세히	-10.2616
▁좁쌀	-10.2617
▁잘먹었습니다	-10.2618
▁퇴	-10.262
▁돌아	-10.2621
▁시에	-10.2622
▁바라	-10.2625
봤어요	-10.2626
▁제품의	-10.2631
부분은	-10.2631
▁이유로	-10.2634
▁관심을	-10.2635
▁기름이	-10.2635
▁봐야	-10.2639
았	-10.2641
▁마사지	-10.2641
▁참고하세요	-10.2645
흐	-10.2647
식이	-10.265
▁안되네요	-10.2651
있었는데	-10.2651
▁똑같아요	-10.2651
땜에	-10.2652
▁끊	-10.2653
▁보장	-10.2657
▁인사	-10.2657
제품을	-10.2658
▁가게	-10.266
▁좋아하고	-10.2661
▁쓰고있는데	-10.2664
▁장난감	-10.2664
▁국회	-10.2665
▁모르	-10.2672
▁떡볶이	-10.2674
▁별루	-10.2678
▁설화수	-10.2679
멸	-10.268
▁편이고	-10.268
▁남겨	-10.2682
▁차에	-10.2686
▁제품과	-10.2688
▁봤어요	-10.2688
둔	-10.2688
우리	-10.2689
▁효	-10.2693
힌	-10.2694
치즈	-10.2697
▁리뉴얼	-10.2697
▁못해	-10.2697
▁브	-10.27
▁저에게	-10.2701
▁고대	-10.2709
▁맛이에요	-10.2709
▁대전	-10.2709
▁빛	-10.2709
▁쓰지	-10.271
는것도	-10.2711
▁파데	-10.2712
▁위해서는	-10.2714
로운	-10.2722
▁소문	-10.2722
받	-10.2733
▁첨에	-10.2736
▁따뜻하게	-10.2739
▁빼면	-10.274
▁소금	-10.2743
▁개별	-10.2747
▁빠지	-10.2748
▁품절이라	-10.275
작은	-10.2753
▁앞서	-10.2753
▁사료	-10.2753
▁아쉽	-10.2754
▁터치	-10.276
▁쿠팡에서	-10.2763
경제	-10.2763
▁크지	-10.2764
닝	-10.2766
완	-10.2769
대비	-10.2771
▁이만한	-10.2773
▁차라리	-10.2779
▁회복	-10.2779
▁넣	-10.278
▁편리하게	-10.2781
▁속옷	-10.2781
욱	-10.2781
▁심플하고	-10.2782
방법	-10.2784
▁할수	-10.2785
성분	-10.28
▁수는	-10.2801
▁실물	-10.2803
▁주일	-10.2804
▁질이	-10.2804
▁달아	-10.2805
포장도	-10.2809
▁조작	-10.2812
성과	-10.2813
라니	-10.2813
▁염	-10.2815
군의	-10.2817
▁건조기	-10.2818
사업	-10.2819
▁좋은건	-10.2821
▁손님	-10.2828
▁참고로	-10.283
▁믿	-10.2838
이었어요	-10.2839
▁아이템	-10.284
엇	-10.2843
▁쪼	-10.2845
▁연령대	-10.2846
▁입장	-10.2847
▁교회	-10.2853
▁행정	-10.2855
▁갔	-10.2855
▁바꿨는데	-10.2869
▁다르	-10.2875
▁흑	-10.2875
▁추천드립니다	-10.2877
▁바디로션	-10.2882
▁흘러	-10.2884
▁가려	-10.2884
▁뾰루지	-10.2888
▁먹었	-10.2888
좋음	-10.2893
▁종합	-10.2896
▁편리해요	-10.2897
▁톤	-10.2899
▁촬영	-10.2899
▁많지	-10.2903
▁살까	-10.2905
▁이유식	-10.2907
▁에너지	-10.2907
▁품	-10.291
▁맛있음	-10.2913
스의	-10.2916
▁스프레이	-10.2917
식품	-10.2919
▁데뷔	-10.2921
▁나타나	-10.2923
▁올라	-10.2927
▁봐	-10.293
화장품	-10.2932
▁정치적	-10.2935
▁나는데	-10.2936
▁후기를	-10.2936
필요	-10.2936
핑크	-10.295
▁높이가	-10.2951
▁식감이	-10.2953
▁든	-10.2954
▁빠지는	-10.2955
쳤	-10.2958
있던	-10.2958
▁된다는	-10.296
혈	-10.2966
장으로	-10.2967
▁통합	-10.2967
할것	-10.2967
▁흔히	-10.2968
▁드리	-10.2968
봐야	-10.2972
▁수행	-10.2974
▁적극추천합니다	-10.2976
닉	-10.2986
▁언	-10.2992
▁진하게	-10.2994
았습니다	-10.2996
▁보였다	-10.3004
▁얼음	-10.3006
▁전용	-10.3009
▁편이	-10.301
기자	-10.3012
게요	-10.3014
▁구매할께요	-10.3016
▁도전	-10.3018
▁약해서	-10.3021
▁경우에는	-10.3024
해봤는데	-10.3026
맥	-10.3029
▁주문할게요	-10.3029
▁어울리는	-10.3032
▁열고	-10.3033
▁연속	-10.3033
▁출전	-10.3038
▁과연	-10.3039
▁다먹고	-10.304
▁평화	-10.304
▁죄	-10.3041
▁수분감	-10.3042
▁준다	-10.3048
▁민주당	-10.3051
▁파우치	-10.3052
▁작년	-10.3053
▁훌륭한	-10.3054
▁구멍이	-10.3055
▁체제	-10.306
▁즉시	-10.306
▁적당합니다	-10.3067
조차	-10.3068
▁눈썹	-10.3071
▁폼	-10.3072
▁그룹	-10.3072
지도않고	-10.3073
되며	-10.3074
▁휴대용	-10.3076
▁지난번	-10.3078
쳤다	-10.3082
▁전환	-10.3083
▁솔	-10.3084
▁쓸만합니다	-10.3085
▁인도	-10.3088
십	-10.3093
▁케	-10.3097
▁고향	-10.3099
던지	-10.3102
▁자연스러운	-10.3104
한것	-10.3104
▁수령	-10.3104
▁수분감이	-10.3104
▁위를	-10.311
▁첫째	-10.3112
탑	-10.3113
▁스피커	-10.3114
▁싫	-10.3116
▁자극도	-10.3117
▁부실	-10.3117
▁일반적으로	-10.3118
▁등장	-10.3118
시면	-10.3118
▁할머니	-10.3119
▁증	-10.3123
▁썼	-10.3124
▁싼가격에	-10.3124
▁주문했네요	-10.3131
▁길이도	-10.3137
▁적극추천	-10.314
럽	-10.3143
방송	-10.3145
서를	-10.3146
봐서	-10.3148
▁회의	-10.3149
자리	-10.315
하시면	-10.3156
▁받았고	-10.3156
▁계산	-10.316
▁먹었네요	-10.3163
▁내내	-10.3165
짝	-10.3166
원래	-10.3166
▁군대	-10.3173
▁깔라만시	-10.3173
▁거기	-10.3176
▁한국의	-10.3179
▁기능도	-10.318
선을	-10.3183
▁달아요	-10.3189
식을	-10.3189
▁됐는데	-10.3191
▁강력	-10.3192
▁맥심	-10.3194
▁바퀴	-10.3195
▁간단한	-10.3199
꾸준히	-10.32
▁밖에서	-10.3205
▁휴대하기	-10.3208
겠다는	-10.3209
촌	-10.3213
▁묻어	-10.3215
▁하도	-10.3215
▁부모	-10.3216
▁사장님	-10.3217
▁요즘은	-10.322
▁그냥저냥	-10.3221
▁제형이	-10.3222
▁사용할수	-10.3225
먹으니	-10.3226
▁불편해요	-10.3227
갔	-10.323
오래	-10.3231
▁편지	-10.3234
리아	-10.3234
▁놀라	-10.3238
▁한박스	-10.3238
성은	-10.3242
▁기다리	-10.3243
▁먹이고	-10.3244
▁갈색	-10.3247
▁남북	-10.3248
▁출발	-10.3249
▁구두	-10.3251
▁사용자	-10.3251
제품입니다	-10.3252
▁만족하는	-10.3252
요즘	-10.3254
래요	-10.3255
원이	-10.3264
▁레몬	-10.3265
▁아이스	-10.3269
맘에	-10.3271
겠지	-10.3273
▁두껍고	-10.3274
▁입술에	-10.3276
품질	-10.3278
▁제형	-10.3283
▁작용	-10.3284
▁출신	-10.3285
▁두피가	-10.3285
하였습니다	-10.3292
약간	-10.3292
▁빨	-10.3293
▁삶의	-10.3295
▁농	-10.3296
▁받지	-10.3298
▁넓어서	-10.3299
▁정의	-10.3302
▁태양	-10.3307
대는	-10.3309
▁나왔	-10.3311
찍	-10.3313
▁찾는	-10.3314
▁안쪽	-10.3316
▁모니터	-10.3316
텐데	-10.3318
▁적게	-10.332
▁반면	-10.3321
▁엉덩이	-10.3322
만이	-10.3322
▁제발	-10.3329
꽃	-10.3329
▁것에	-10.3331
▁만족하면서	-10.3334
답	-10.3337
▁방향	-10.3339
▁니트	-10.334
▁것인가	-10.334
▁쿠	-10.3341
대가	-10.3342
▁지정	-10.3343
▁늦은	-10.3344
▁연장	-10.3345
▁쳐	-10.3345
▁유선	-10.3346
디자인	-10.3347
▁절반	-10.3353
▁남자친구	-10.3357
▁다리가	-10.3358
▁하니까	-10.3358
▁도시락	-10.3358
틴	-10.3363
▁없었는데	-10.3365
▁조명	-10.3365
▁핀	-10.3369
▁찾	-10.3369
잠	-10.337
▁고개를	-10.3371
▁피부도	-10.3373
▁시킬	-10.3376
▁몇번째	-10.3379
▁발매	-10.3379
▁당황	-10.338
▁찾아서	-10.3382
갈때	-10.3385
주세요	-10.3385
▁됐다	-10.3391
협	-10.3393
▁확장	-10.3394
▁컵라면	-10.34
▁높아서	-10.34
식으로	-10.3404
▁출시	-10.3407
구여	-10.3409
▁머리에	-10.3409
▁사줬는데	-10.3413
이런	-10.3417
▁사용이	-10.3417
은행	-10.342
▁좋았을	-10.342
▁펜	-10.3426
▁빠져서	-10.3427
로션	-10.343
거같	-10.3431
▁지난해	-10.3432
▁동생이	-10.3433
낼	-10.3434
▁엔	-10.344
▁적당해요	-10.344
▁안될	-10.3442
시간이	-10.3444
장에	-10.3444
▁오후에	-10.3445
▁구매인데	-10.3448
▁슈퍼	-10.3453
▁하나더	-10.3454
▁샐러드	-10.3457
▁싱글	-10.3458
▁뜨거운	-10.3458
▁구매하겠습니다	-10.346
▁세상에	-10.346
▁좋아하세요	-10.3461
씨가	-10.3464
▁이하	-10.3466
▁한쪽	-10.3468
▁쉽지	-10.3468
▁대한민국의	-10.3471
▁됐	-10.3473
▁마음을	-10.3473
▁약속	-10.3473
기간	-10.3474
▁부담이	-10.3479
▁옛	-10.3479
▁스팀	-10.3483
▁눌러	-10.3489
▁비록	-10.3491
▁있을것	-10.3491
▁마스크팩	-10.3491
▁맞춰서	-10.3493
▁뛰어	-10.3497
▁점심	-10.3497
▁별하나	-10.3504
▁여러분	-10.3505
▁후반	-10.351
▁만족도	-10.3512
▁좋은가격에	-10.3513
▁기념	-10.3519
▁지금도	-10.3519
▁그리스	-10.3522
▁쟁여놓고	-10.3524
▁라이트	-10.3524
▁아시아	-10.3525
는걸	-10.3526
▁장소	-10.3529
▁리터	-10.353
▁모른다	-10.3538
▁묻	-10.3539
▁여러모로	-10.3539
자와	-10.354
▁이제품은	-10.3542
▁잘먹을게요	-10.3543
야겠어요	-10.3545
▁보이네요	-10.3548
▁다니기	-10.3548
▁복합성	-10.3549
▁값	-10.355
▁확보	-10.3552
▁필요했는데	-10.3556
▁녹차	-10.3558
그런	-10.3559
▁건강을	-10.3559
▁놀랐습니다	-10.3561
▁말은	-10.3561
점은	-10.3563
▁노동	-10.3564
▁인물	-10.3566
▁안맞는	-10.3568
섭	-10.3569
▁오염	-10.3573
▁면도	-10.3573
▁구매했	-10.3575
▁안전한	-10.3575
▁저의	-10.359
▁본체	-10.359
됐어요	-10.3593
▁모서리	-10.3595
▁방에	-10.3595
▁싶을	-10.3596
▁연습	-10.3597
있지만	-10.3597
▁씻	-10.3599
▁시각	-10.3599
보이고	-10.36
▁하이	-10.3603
▁일반적인	-10.3604
▁가로	-10.3608
▁딱딱한	-10.3608
▁화면과	-10.3611
▁배치	-10.3611
해주고	-10.3612
▁붓	-10.3613
▁서비스로	-10.3614
물건	-10.3616
▁말에	-10.3616
피부가	-10.3619
▁삿는데	-10.3622
▁강하지	-10.3626
▁가루가	-10.3627
▁나올	-10.363
▁핏도	-10.363
▁차단	-10.3631
▁느껴져요	-10.3632
▁회장	-10.3632
▁고소한	-10.3637
▁사용해봐야	-10.3653
혼	-10.3656
▁수세미	-10.3661
▁허리가	-10.3669
힘	-10.3669
▁인분	-10.367
▁시작한	-10.3675
▁누구나	-10.3676
▁튼튼해	-10.3678
▁아이도	-10.3679
▁정확하게	-10.3683
으려고	-10.3685
토너	-10.3689
널	-10.369
▁착한가격	-10.3691
▁살걸	-10.3692
▁웃	-10.3696
▁실험	-10.3704
▁똑같	-10.3706
▁알았	-10.3707
▁밝혀	-10.3709
이뻐요	-10.3709
싶어요	-10.371
화장	-10.3711
▁아버지가	-10.3712
▁시민	-10.3718
▁무난	-10.3718
붙	-10.3723
싶어서	-10.3725
비누	-10.3735
▁선반	-10.3735
▁검찰	-10.3737
▁별로에요	-10.3739
▁조각	-10.3744
발라	-10.3745
▁보자	-10.3745
▁오프라인	-10.3749
혜	-10.3749
▁커피를	-10.375
▁오전에	-10.3752
▁지급	-10.3752
▁상상	-10.3752
▁요건	-10.3758
▁시중에	-10.3758
켜	-10.3759
▁사이즈로	-10.376
버리	-10.3761
찾	-10.3761
▁쌍	-10.3765
났	-10.3766
▁가시	-10.3778
▁들었다	-10.3779
▁것만	-10.3779
▁입맛에	-10.378
▁건너	-10.3782
▁매달	-10.3783
▁작가	-10.3785
쪽이	-10.3787
중인데	-10.3789
▁기준으로	-10.379
▁스페인	-10.3793
이용	-10.3797
이제	-10.3798
▁티백	-10.3802
▁출산	-10.3803
▁못할	-10.3807
거죠	-10.3809
▁코드	-10.3809
▁길을	-10.3811
한다면	-10.3811
▁제한	-10.3811
빠	-10.3815
▁깔끔하네요	-10.3817
▁실물이	-10.3817
▁해방	-10.3817
기엔	-10.3822
▁포장을	-10.3823
▁남아있	-10.3823
크기	-10.3824
▁썼었는데	-10.383
정보	-10.3831
▁날씨	-10.3831
▁유모차	-10.3834
▁두께	-10.3838
곳이	-10.3841
▁도착했네요	-10.3846
▁사진을	-10.3848
바르면	-10.3852
청소	-10.3855
▁다음엔	-10.3856
▁공연	-10.3856
▁시키는	-10.3857
▁브라	-10.3857
▁세트로	-10.3866
▁착해서	-10.3866
▁않았고	-10.3867
▁다른곳보다	-10.3869
▁아가	-10.3871
꺼라	-10.3872
▁먹지	-10.3872
▁역할	-10.3872
되는데	-10.3881
▁쓰니	-10.3882
▁책임	-10.3882
▁내용을	-10.3883
해주세요	-10.3886
▁안나서	-10.3888
전에서	-10.3895
▁하시는	-10.3898
▁재구매해서	-10.39
▁기존의	-10.3902
▁간이	-10.3908
▁리뷰가	-10.3911
▁친절하고	-10.3911
구성	-10.3912
▁보도	-10.3918
▁선물하려고	-10.3919
▁사이트	-10.3922
▁수많은	-10.3922
▁개째	-10.3923
▁중단	-10.3923
내고	-10.3924
겟	-10.3928
생활	-10.3929
▁목이	-10.393
▁퍼프	-10.3931
럭	-10.3932
려구	-10.3934
▁기독교	-10.3937
길이	-10.3939
▁내년	-10.3939
엉	-10.3946
▁소비	-10.3947
▁필요할	-10.3949
▁뜯	-10.3952
▁작은거	-10.3959
비가	-10.3959
끔	-10.396
▁피곤	-10.3961
▁현상이	-10.3963
으시	-10.3969
▁커버가	-10.3974
▁자료	-10.3977
▁버스	-10.3977
▁부정	-10.3981
하지는	-10.3981
롤	-10.3982
▁책을	-10.3987
▁분류	-10.3987
▁막걸리	-10.3991
거같은데	-10.3992
▁제법	-10.3993
측	-10.3997
▁말하는	-10.4
대서	-10.4002
이여서	-10.4003
에서의	-10.4004
▁가능해서	-10.4005
턴	-10.4011
▁장관	-10.4013
▁만들기	-10.4018
▁인지	-10.4019
줄알았는데	-10.4019
▁분은	-10.4021
▁말해	-10.4022
▁밀가루	-10.4025
▁안정	-10.4032
▁손가락	-10.4033
슴	-10.4033
▁샘플로	-10.4034
하지도	-10.4035
▁유튜브	-10.4036
▁화장을	-10.4038
워서	-10.404
▁포장에	-10.4041
감은	-10.4041
했을때	-10.4042
▁냉	-10.4042
▁충격	-10.4044
▁대용량으로	-10.4046
▁났	-10.4046
▁주말에	-10.405
▁읽	-10.4051
▁테이블	-10.4052
▁방법을	-10.4052
▁혼자서	-10.4053
서는	-10.4053
▁앙	-10.4054
▁탁	-10.4056
▁나오네요	-10.4061
아닌	-10.4065
넣어	-10.4071
▁자면	-10.4073
▁마감도	-10.4075
좋은데	-10.4079
▁주문을	-10.4082
었을	-10.4083
▁보내주	-10.4084
▁궁	-10.4084
느냐	-10.4085
▁정부의	-10.4085
대에	-10.4089
▁변비	-10.409
▁했었는데	-10.4091
▁고속	-10.4092
▁모래	-10.4093
▁버터	-10.4094
까진	-10.4094
빨라요	-10.4095
▁사용전이라	-10.4098
▁마른	-10.4098
▁언급	-10.41
합니당	-10.4101
▁끝까지	-10.4101
점을	-10.4102
▁카누	-10.4103
▁저처럼	-10.4104
▁구매하는데	-10.4106
▁떨어진	-10.4108
휴	-10.4112
▁워터	-10.4115
▁피부과	-10.4116
▁고정이	-10.4119
률	-10.412
▁체험	-10.4123
않	-10.4127
▁하나하나	-10.4128
▁거부감	-10.4129
▁화학	-10.4131
▁유행	-10.4132
▁지도	-10.4133
▁기사님이	-10.4134
하라고	-10.4135
▁스틱	-10.4139
▁귀에	-10.4144
▁대구	-10.4145
▁신경쓰	-10.4145
▁내용물	-10.4146
먹었어요	-10.4146
▁기스	-10.4149
▁밖으로	-10.4151
▁발랐는데	-10.4155
명이	-10.4155
▁뉴	-10.4155
▁느껴지는	-10.4157
▁겨울이라	-10.4157
▁동작	-10.4159
▁간단하고	-10.4163
▁오늘날	-10.4167
▁드라이기	-10.417
▁딸아이가	-10.4176
▁나누어	-10.4176
▁파악	-10.4178
▁내용은	-10.4179
▁우리나라	-10.4181
▁골고루	-10.4182
▁착한가격에	-10.4184
▁수상	-10.4185
부가	-10.4188
▁가격대	-10.4194
가능	-10.4195
▁사이의	-10.4196
▁은은하고	-10.4196
▁득템	-10.4198
기전에	-10.4198
▁톤업	-10.4203
것은	-10.4207
▁총리	-10.4208
거는	-10.4209
▁담날	-10.421
▁기사님도	-10.4212
▁계속해서	-10.4215
▁정부는	-10.4215
▁입자가	-10.4216
▁당면	-10.4217
▁되니까	-10.422
▁원목	-10.4222
▁연출	-10.4223
▁깊이	-10.4223
침대	-10.4224
▁젖	-10.4226
▁생각하는	-10.4226
▁신세계	-10.4229
▁센	-10.4231
▁일째	-10.4235
▁에어팟	-10.4238
▁매트한	-10.4239
▁보습력	-10.424
많은	-10.4247
스를	-10.425
소리가	-10.425
▁측정	-10.4251
▁정권	-10.4254
▁교통	-10.4255
분은	-10.4256
▁선생님	-10.4259
앤	-10.4261
쿠션	-10.4262
▁다쓰면	-10.4264
▁제도	-10.4268
▁딴	-10.427
▁잘되요	-10.4272
▁바르니	-10.4275
▁검사	-10.4276
▁찰떡	-10.4277
들로	-10.4279
▁진리	-10.4281
▁쉬운	-10.4281
▁압	-10.4283
▁결코	-10.4284
▁육수	-10.4284
▁휴	-10.4284
▁뼈	-10.4285
▁출력	-10.4287
▁신라	-10.4288
▁생일	-10.429
▁이름이	-10.4296
▁삶	-10.4296
▁인생템	-10.4299
살이	-10.43
되었습니다	-10.4302
▁좋은지	-10.4304
▁평생	-10.4305
▁철학	-10.4306
▁넓	-10.4311
▁쟁여	-10.4312
또한	-10.4313
▁있는것	-10.4313
▁치고	-10.4315
▁감사히	-10.4315
▁접근	-10.4316
▁예전부터	-10.4316
▁거래	-10.4316
비를	-10.432
▁겨울철	-10.4322
▁설거지	-10.4322
▁주문해요	-10.4324
▁생각해서	-10.4328
긴해요	-10.4328
▁최애	-10.433
▁아이보리	-10.4332
▁끼고	-10.4336
▁최종	-10.4337
▁개최	-10.4341
▁나왔다	-10.4342
셀	-10.4342
사로	-10.4343
싶네요	-10.4344
▁아무것도	-10.4348
▁행위	-10.435
자들이	-10.4351
분들은	-10.4352
▁생각보단	-10.4353
할듯	-10.4353
▁씻고	-10.4358
▁도움을	-10.4358
▁시인	-10.4359
▁끈적	-10.4359
졌	-10.436
▁세제	-10.4362
려는	-10.4364
▁마이크	-10.4365
▁하던	-10.4367
▁모아	-10.4368
▁보아	-10.437
▁알려져	-10.4377
▁데일리	-10.4377
우스	-10.4377
▁통과	-10.4377
▁안나요	-10.4379
보호	-10.4379
▁건조하고	-10.4381
▁더이상	-10.4382
▁드라마틱한	-10.4383
▁건강에	-10.4385
▁덮	-10.4389
▁자신을	-10.439
케어	-10.4392
편해요	-10.4393
세를	-10.4394
효과는	-10.4401
결과	-10.4404
▁무료배송	-10.4408
▁간단	-10.4409
내는	-10.4419
▁그걸	-10.442
가며	-10.4421
▁먼	-10.4421
▁강조	-10.4423
것만	-10.4424
▁뛰어난	-10.4426
받아서	-10.4426
▁문제없이	-10.4431
랜	-10.4431
▁최초의	-10.4435
▁가끔씩	-10.4435
▁계란	-10.4439
▁무게가	-10.4439
▁조아	-10.4441
트리	-10.4442
▁안에서	-10.4443
▁필요하다	-10.4444
▁이제야	-10.4446
▁있더라구요	-10.4446
▁조심	-10.4448
▁폴	-10.445
▁작년에	-10.4454
▁인한	-10.4456
배송이	-10.4456
▁넘어가	-10.4458
▁주문해봤어요	-10.4463
▁있을까	-10.4464
치가	-10.4469
▁네이버	-10.4469
▁사용하다	-10.447
▁관심	-10.447
▁검정색	-10.4477
▁노트	-10.448
잎	-10.4483
샤	-10.4483
▁지켜	-10.4486
법을	-10.4487
▁어디에	-10.4488
▁선언	-10.4489
▁싶다	-10.4496
▁범	-10.4497
모양	-10.4497
▁들이	-10.4497
▁세정력도	-10.45
▁계시	-10.45
행사	-10.4502
▁있어도	-10.4503
▁사운드	-10.4504
▁직업	-10.4506
▁찾기	-10.4508
▁제품들	-10.451
▁먹이	-10.4511
하길래	-10.4514
▁세개	-10.4514
▁용이	-10.4516
카드	-10.4517
▁다닐	-10.4517
충전	-10.4518
대학교	-10.4519
그런지	-10.4519
▁주방	-10.452
▁주변에서	-10.4522
▁성격	-10.4523
된다고	-10.4523
둥	-10.4529
▁사용전	-10.4532
▁조합	-10.4532
▁안좋은	-10.4535
춘	-10.4538
▁이래	-10.4539
▁무대	-10.4541
▁넉넉	-10.4541
▁벽에	-10.4543
▁쇠	-10.4543
▁테이프	-10.4545
▁가성비는	-10.4545
▁가면	-10.4545
▁운동화	-10.4546
▁기능은	-10.4547
▁사망	-10.4549
▁발볼이	-10.455
▁사진처럼	-10.4552
▁느렸지만	-10.4552
▁바르는데	-10.4552
▁해야하나	-10.4553
룩	-10.4553
▁독자	-10.4555
원을	-10.4557
▁에어프라이어에	-10.456
▁이곳에서	-10.4561
▁찰	-10.4561
▁수분이	-10.4563
▁사용해야	-10.4564
▁소련	-10.4565
▁힘들었는데	-10.4567
▁머릿결	-10.4568
▁강력한	-10.4568
▁사용하게	-10.4573
▁죽은	-10.4575
▁등은	-10.4577
▁불리	-10.4578
롭	-10.4579
▁남아서	-10.4581
▁끌어	-10.4585
▁말라	-10.4591
나면	-10.4592
▁한글	-10.4595
▁지퍼	-10.4596
▁끼워	-10.4597
▁바꾸고	-10.46
▁프라이머	-10.4601
받는	-10.4602
▁만두는	-10.4603
주려고	-10.4604
▁공사	-10.4604
▁강해서	-10.4605
▁싸구려	-10.4605
▁사람도	-10.4606
빠른배송	-10.4609
▁올라와서	-10.461
▁부담스럽지	-10.4612
자들은	-10.4612
▁합의	-10.4612
▁아침마다	-10.4616
▁아니었다	-10.4616
▁장점이	-10.4617
▁푹	-10.4619
▁쉬워요	-10.4621
▁보내주셨네요	-10.4622
▁신을	-10.4624
▁사길	-10.4626
뻔	-10.4626
함에	-10.463
▁부르	-10.4632
▁놀랬어요	-10.4632
▁본다	-10.4633
▁근대	-10.4636
▁노브랜드	-10.4637
▁닦아	-10.4638
확인	-10.4639
거같습니다	-10.4639
배송은	-10.464
▁활약	-10.4641
▁느낌이네요	-10.4641
하였는데	-10.4642
화가	-10.4649
▁정당	-10.4652
▁그다지	-10.4653
▁각도	-10.4655
▁황제	-10.4655
▁우수	-10.4657
센터	-10.4667
▁민감	-10.4673
앞	-10.4675
▁그런건지	-10.4677
▁없는거	-10.468
추가	-10.4681
억	-10.4685
▁쎄	-10.4693
▁경우도	-10.4693
께요	-10.4695
▁옵션	-10.4697
▁사진보다	-10.4699
▁커버력도	-10.4713
써서	-10.4713
▁마찬가지로	-10.4714
▁다니	-10.4715
▁비롯한	-10.4715
▁시행	-10.4716
▁쇼	-10.4718
이쁘고	-10.4727
중에서	-10.4727
▁있답니다	-10.4727
▁뽑	-10.4728
빠른	-10.4729
▁가격만큼	-10.4729
▁자극없이	-10.473
갑니다	-10.4731
▁좋아하시는	-10.4733
▁임명	-10.4736
헤	-10.4737
▁보낸	-10.4739
▁몰라도	-10.4741
▁해보	-10.4742
거같아	-10.4747
중이라	-10.4749
▁느껴집니다	-10.4752
▁이상없이	-10.4753
살짝	-10.4755
▁담겨	-10.4756
▁감사드려요	-10.4757
▁커버력이	-10.4758
있으면	-10.4759
▁안했는데	-10.4759
▁주셨네요	-10.476
하러	-10.476
서비스	-10.4761
제거	-10.4761
▁불편함	-10.4762
▁기사	-10.4764
▁걸려	-10.4764
센	-10.4767
▁표기	-10.4767
핑	-10.4768
▁싶은데	-10.4768
▁나은	-10.4771
▁양말	-10.4772
지않는	-10.4772
▁케어	-10.4774
▁떨어지지	-10.4775
▁궁금해서	-10.4776
▁지식	-10.4776
▁아닐까	-10.4776
▁억원	-10.4777
▁몇년	-10.4779
▁지인이	-10.4783
▁펌프	-10.4784
▁측면	-10.4787
▁방법이	-10.4787
▁동일한	-10.4789
▁중독	-10.4791
▁진심	-10.4793
▁유분	-10.4793
▁졸	-10.4794
▁훈련	-10.4795
▁발림성은	-10.4801
에센스	-10.4802
▁맛잇	-10.4805
단계	-10.4806
▁상품이에요	-10.4807
▁견	-10.4809
몽	-10.481
효과가	-10.481
▁좋겠	-10.4814
▁좋으나	-10.4814
▁째	-10.4817
쓴	-10.4822
끄	-10.4825
옹	-10.4826
▁필수품	-10.4829
▁아이패드	-10.483
주문했는데	-10.4833
▁담당	-10.4833
▁방금	-10.4837
▁본인	-10.4838
▁시켰	-10.4842
▁오징어	-10.4845
레드	-10.4846
▁한번도	-10.4851
할게요	-10.4853
▁어쩔수	-10.4855
▁좌	-10.486
▁딸기	-10.4861
▁해동	-10.4862
▁잡아주는	-10.4863
▁린스	-10.4865
햇어요	-10.4866
▁바꿀	-10.4867
▁선호	-10.4868
▁줄이	-10.4869
▁많았는데	-10.4873
▁금액	-10.4875
썼	-10.4875
▁할까	-10.4877
▁연한	-10.4878
▁바닥이	-10.4878
▁콘	-10.4879
▁커버력은	-10.488
▁주었다	-10.4881
보기	-10.4882
▁파괴	-10.4882
▁부드러워	-10.4883
방지	-10.4884
먹어	-10.4885
▁밴드	-10.4886
▁소화	-10.4888
▁묵	-10.489
물에	-10.4891
▁만들고	-10.4894
부는	-10.4896
지로	-10.4898
▁업무	-10.4904
▁능	-10.4905
▁모습이	-10.4906
▁올림픽	-10.4906
을땐	-10.4907
이지	-10.4908
특	-10.4909
▁면에서	-10.4912
▁기획	-10.4913
▁일이다	-10.4914
▁불교	-10.4916
▁그랬	-10.4918
▁좌우	-10.4919
▁좋긴한데	-10.4922
▁연방	-10.4922
▁비추	-10.4923
▁대학교	-10.4924
▁무엇보다도	-10.4924
▁텀블러	-10.4929
기분	-10.4931
▁소독	-10.4935
▁향해	-10.4936
▁볼륨	-10.4937
▁올라오	-10.494
▁날짜	-10.4941
것같고	-10.4944
▁알약	-10.4946
▁운행	-10.4951
니당	-10.4954
▁스타	-10.4955
▁멀리	-10.4955
구조	-10.4955
▁일회용	-10.4963
첨	-10.4965
▁조카	-10.4969
▁되었	-10.4972
▁시기에	-10.4973
구매했는데	-10.4975
자인	-10.4978
▁불과	-10.4984
▁금융	-10.4985
▁튼튼	-10.4985
▁둘이	-10.4989
▁들어갈	-10.4989
▁짜파게티	-10.4991
▁잘왔어요	-10.4993
▁없어지	-10.4993
▁쇼핑	-10.4995
에겐	-10.4996
정책	-10.4998
▁떨어질	-10.4998
▁롤	-10.4999
▁전면	-10.5002
▁뉴욕	-10.5004
만을	-10.5004
▁마다	-10.501
▁느껴지	-10.5011
즙	-10.5013
▁와이프	-10.5014
▁가능성이	-10.5016
▁티가	-10.5017
줍니다	-10.5017
▁화장솜	-10.502
▁썼던	-10.5024
▁당신	-10.5024
▁첫번째	-10.5027
▁집을	-10.5028
▁설계	-10.503
▁재미	-10.5036
▁부분도	-10.5038
▁활동을	-10.5039
▁붙이는	-10.504
▁먹었던	-10.5042
▁입는데	-10.5044
이기	-10.5044
▁성적	-10.5044
▁연휴	-10.5045
▁묘	-10.5046
▁최곱니다	-10.5047
잘받았습니다	-10.505
▁맛과	-10.5055
▁핫	-10.5055
▁친절히	-10.5057
저렴한	-10.5057
▁검은색	-10.5058
▁사람들의	-10.5059
▁졸업	-10.506
▁하얗게	-10.5061
▁위에서	-10.5061
▁이용합니다	-10.5063
▁썬크림	-10.5063
든지	-10.5064
하루	-10.5066
▁의외로	-10.5067
쇼	-10.5072
▁관계를	-10.5072
빌	-10.5073
▁부분을	-10.5078
▁이상이	-10.5082
▁남기	-10.5085
계의	-10.509
▁드는데	-10.5092
성에	-10.5099
▁갓	-10.5103
▁알아서	-10.5105
▁쓰다보니	-10.5108
▁응대	-10.5123
▁건강해지는	-10.5125
▁계절	-10.5131
해보고	-10.5132
▁짧아서	-10.5137
▁감정	-10.5138
▁파워	-10.5139
▁저렴하니	-10.514
▁알아보다가	-10.5142
▁근거	-10.5144
다음에	-10.5144
▁보습력이	-10.5144
▁자국	-10.5148
▁방수	-10.5148
▁쪽으로	-10.5148
▁어쩌나	-10.5148
▁탈모	-10.5149
▁기대합니다	-10.5153
뿐만	-10.5155
임에도	-10.5155
▁한치수	-10.5155
▁날씨에	-10.5157
원의	-10.5158
거같고	-10.5159
해여	-10.516
▁만족도가	-10.516
▁무료	-10.5162
▁무거워서	-10.5163
▁뽑아	-10.5163
▁전개	-10.5165
지에	-10.5165
▁화장도	-10.5165
▁사용했습니다	-10.5166
▁능력	-10.5168
▁했으나	-10.5168
▁택	-10.5169
▁시켜먹는	-10.5169
▁물로	-10.5171
▁오픈	-10.5172
▁피부라	-10.5173
주신	-10.5174
▁포장해서	-10.5175
▁똑같이	-10.5176
▁유명해서	-10.5177
▁한잔	-10.5178
▁가족이	-10.5181
▁양호	-10.5181
지않게	-10.5183
▁내려가	-10.5185
▁감소	-10.5185
▁통신	-10.5188
▁뇌	-10.519
▁쥐	-10.5194
▁풀어	-10.5195
▁양파	-10.5196
▁없었고	-10.5196
▁하길래	-10.5197
▁문을	-10.5202
싶어	-10.5206
장에서	-10.5208
▁팬티	-10.5208
▁유분기	-10.5209
▁족	-10.521
▁근무	-10.521
▁틀어	-10.521
▁최대한	-10.521
▁육개장	-10.5211
▁들어가고	-10.5212
▁선발	-10.5212
▁뜯어서	-10.5213
딸	-10.5215
▁저랑	-10.5216
폐	-10.5217
▁부부	-10.5218
▁흥	-10.5219
저렴	-10.5219
셔야	-10.5221
▁있다가	-10.5224
감도	-10.5227
▁것이라는	-10.5227
▁재정	-10.5231
▁구매하여	-10.5232
▁달라서	-10.5233
▁선물해	-10.5235
▁널리	-10.5238
▁간장	-10.5239
치를	-10.5243
▁모르겠	-10.5243
▁기저귀	-10.5244
▁선택했는데	-10.5247
▁써봤지만	-10.5247
▁완화	-10.5249
▁지속적으로	-10.5251
보여서	-10.5251
▁수출	-10.5253
▁재생	-10.5254
▁그러니까	-10.5254
▁들었	-10.5255
을텐데	-10.5257
빙	-10.5257
오늘	-10.5258
▁쿠키	-10.5258
뉴	-10.5265
최	-10.5266
▁느낌이예요	-10.5267
▁할께요	-10.5267
▁사먹	-10.527
▁몰라서	-10.5271
맘	-10.5275
▁밥을	-10.5275
▁장기	-10.5276
▁모자	-10.5276
▁빠진	-10.5276
산업	-10.5277
▁사용하기에	-10.5281
▁사무실에	-10.5282
▁희망	-10.5285
▁사용했어요	-10.5287
강추	-10.5289
념	-10.529
▁편이에요	-10.5292
▁좋습니당	-10.5292
껀	-10.5293
▁미안	-10.5293
잉	-10.5301
▁좋긴	-10.5301
▁걸렸어요	-10.5303
▁이러	-10.5304
▁할게요	-10.5305
종류	-10.5305
놓으면	-10.5305
떼	-10.5306
▁내용이	-10.5307
▁용기가	-10.5309
▁마늘	-10.5313
▁올라오는	-10.5313
▁학문	-10.5314
▁새벽	-10.5315
▁수용	-10.5317
▁어린이	-10.5317
▁실내	-10.5318
혹	-10.5324
써보고	-10.5325
▁좋았	-10.5327
이었고	-10.5327
▁진라면	-10.5329
▁이번이	-10.533
▁뽁뽁이로	-10.5332
▁불만	-10.5333
홀	-10.5335
▁보조	-10.5336
▁은은하니	-10.5338
▁천천히	-10.5339
▁모르겠으나	-10.5341
▁상품이라	-10.5341
문의	-10.5344
▁기대했던	-10.5345
▁콜	-10.5345
▁유기농	-10.5347
▁골라	-10.5347
부분에	-10.5348
님이	-10.5349
▁두통	-10.5349
건강	-10.535
한듯	-10.535
빼	-10.5352
▁우유에	-10.5355
▁끝내	-10.5356
▁탄산	-10.5356
▁맛있다	-10.5357
▁크림이	-10.5357
있게	-10.5365
▁처음인데	-10.5366
▁입맛	-10.5371
▁놓아	-10.5372
지금	-10.5373
▁다른데	-10.5375
▁처음이라	-10.5379
▁수사	-10.5379
됐	-10.538
▁마음으로	-10.5381
버린	-10.5382
▁믿을	-10.5392
▁만들어서	-10.5394
▁민주	-10.5396
▁영역	-10.5398
▁최근에	-10.5398
부터는	-10.54
▁화가	-10.54
▁세일해서	-10.5401
▁착용감	-10.5401
때는	-10.5402
▁느	-10.5405
▁구성도	-10.5406
▁얘기를	-10.5408
과자	-10.541
수로	-10.5411
▁발라야	-10.5412
▁제국	-10.5413
펜	-10.5414
▁빨리와서	-10.5415
주니	-10.5416
하는거	-10.5416
▁줬는데	-10.542
▁맘에들고	-10.542
형으로	-10.5422
하길	-10.5423
▁스포츠	-10.5423
▁껴	-10.5425
▁돌려서	-10.5426
원은	-10.5427
▁전에는	-10.5433
▁사용해보	-10.5434
▁주름이	-10.5435
하느라	-10.5435
▁보았다	-10.5438
▁주시	-10.5439
▁몰라	-10.5439
▁후기에	-10.5444
▁카페	-10.5447
▁부여	-10.5447
▁입으면	-10.5449
지않아요	-10.545
제도	-10.545
▁선택한	-10.545
▁스마트	-10.5451
때도	-10.5451
▁특정	-10.5453
▁단맛	-10.5454
▁인터넷에서	-10.5454
가고	-10.5457
▁웃음	-10.5457
▁사용감이	-10.5458
릴때	-10.5461
▁체크	-10.5462
▁양배추	-10.5462
▁죽음	-10.5464
▁보수	-10.5465
▁적어요	-10.5465
스틱	-10.547
▁부품	-10.5472
▁오네요	-10.5473
▁괴	-10.5474
▁자석	-10.5474
▁괜찮은듯	-10.5474
없음	-10.5475
▁갤럭시	-10.5475
▁차이는	-10.5477
했기	-10.548
▁넣는	-10.5482
▁거에요	-10.5483
부를	-10.5483
녹	-10.5483
정도는	-10.5484
▁몇몇	-10.5487
▁박스포장	-10.5488
▁문장	-10.549
▁중인데	-10.5491
▁저렇게	-10.5492
브랜드	-10.5492
옴	-10.5493
▁잉크	-10.5494
▁맛에	-10.5494
▁좋아진	-10.5495
▁이후로	-10.5496
▁이것을	-10.5497
▁간식용으로	-10.55
▁모를	-10.5503
때부터	-10.5503
▁보습이	-10.5511
▁욕실	-10.5513
으론	-10.5516
▁점차	-10.5517
▁용으로	-10.5518
▁두꺼워서	-10.5519
▁미래	-10.5519
▁알로에	-10.5522
돼요	-10.5522
여행	-10.5523
▁하드	-10.5527
하라	-10.5528
▁공장	-10.5529
▁싫어서	-10.553
▁그려	-10.5532
▁때에는	-10.5537
▁짓	-10.5538
핀	-10.5538
▁강하게	-10.5541
▁입는	-10.5543
리뷰	-10.5544
컬	-10.5546
▁맞을	-10.5546
기업	-10.5547
먹는데	-10.5547
젠	-10.5549
▁국물이	-10.555
▁만들어진	-10.5551
면에서	-10.5552
렴	-10.5553
이번에	-10.5554
▁빠르고요	-10.5554
무엇보다	-10.556
▁상황이	-10.5561
▁봄에	-10.5564
▁주위	-10.5565
▁쓰면서	-10.5565
▁소매	-10.5566
▁뻣뻣	-10.5568
▁달라고	-10.5569
▁신선한	-10.5571
▁비싸게	-10.5574
▁맛나고	-10.5577
캔	-10.5577
군은	-10.5578
▁짐	-10.5578
▁이라고	-10.5579
삭	-10.5579
펄	-10.558
▁확정	-10.558
▁반신반의	-10.5582
▁바뀐	-10.5583
스럽게	-10.5586
▁앉	-10.5586
▁있는게	-10.5588
▁미백	-10.5589
해졌다	-10.559
▁발목	-10.5591
▁잡티	-10.5592
▁여기서만	-10.5595
▁크림을	-10.5598
▁이용해	-10.56
▁먹음	-10.5601
▁같다고	-10.5601
▁확실한	-10.5605
▁지내	-10.5607
▁때부터	-10.5609
▁다쓰고	-10.5614
▁깔고	-10.5614
버려서	-10.5615
럼	-10.5618
▁한나라당	-10.5618
▁말도	-10.5618
▁치킨	-10.5622
▁포트	-10.5622
▁추천받아서	-10.5626
나네요	-10.5633
▁넉넉합니다	-10.5634
▁고데기	-10.5637
▁인상	-10.564
▁홍보	-10.5641
▁잘먹을께요	-10.5645
▁음질이	-10.5645
▁케이스는	-10.5645
▁첨부	-10.5646
▁목적	-10.5647
▁아쉬움이	-10.5648
▁핑크색	-10.5649
▁쑥	-10.5654
피부에	-10.5656
몬	-10.566
좋구요	-10.566
▁남는	-10.5662
▁캡슐	-10.5666
정을	-10.5667
거리고	-10.5668
양도	-10.5672
▁거기서	-10.5672
▁상품에	-10.5673
▁실수	-10.5676
▁대량	-10.5676
▁흙	-10.5679
룡	-10.5681
▁백화점에서	-10.5681
대의	-10.5685
전화	-10.5688
명을	-10.5689
▁좋네여	-10.5693
▁고급지고	-10.5693
▁정부가	-10.5694
감사	-10.5695
▁늘어나	-10.5696
▁야구	-10.57
졌는데	-10.5701
▁애기가	-10.5704
▁밀리	-10.5708
▁편리	-10.5708
방식	-10.5709
마음에	-10.571
빨	-10.5713
▁주제	-10.5713
▁시킨	-10.5714
▁계약	-10.5715
넣	-10.5717
▁가라앉	-10.5717
▁가스	-10.5719
보이	-10.5719
▁만족스럽고	-10.5721
▁가습	-10.5727
▁않구요	-10.5732
▁제목	-10.5732
▁경계	-10.5734
▁전날	-10.5734
▁집으로	-10.5735
▁한사이즈	-10.5737
▁충분	-10.5737
콩	-10.5738
▁그러므로	-10.574
▁깔아	-10.574
▁어떨지	-10.5741
▁상승	-10.5742
▁금지	-10.5743
▁매년	-10.5748
▁되기	-10.575
▁일년	-10.575
▁선물하기	-10.575
▁말고는	-10.5751
거려서	-10.5751
▁명을	-10.5751
▁있음을	-10.5753
▁버릴	-10.5753
▁모공이	-10.5755
보이는	-10.5755
▁없으니	-10.576
▁옷걸이	-10.5763
팬	-10.5764
▁꼽	-10.5765
▁일에는	-10.5766
▁논리	-10.5769
▁진하지	-10.5772
▁등과	-10.5772
▁썼어요	-10.5773
▁들어오	-10.5776
▁같았다	-10.5776
▁자동으로	-10.5779
▁무엇	-10.5779
▁찾게	-10.578
▁자리에	-10.5781
▁홈쇼핑	-10.5784
▁시트	-10.5787
▁반영	-10.5788
▁노선	-10.579
▁힘들어	-10.5791
▁화질	-10.5792
바르	-10.5796
▁두께도	-10.5796
▁핵심	-10.5798
▁양을	-10.5799
▁형태로	-10.5806
▁생겨	-10.5806
닦	-10.5807
▁조립이	-10.5809
▁사이다	-10.581
▁매일매일	-10.581
▁무릎	-10.5813
▁자식	-10.5813
▁뛰	-10.5813
▁주인공	-10.5814
고민	-10.5815
▁밝	-10.5815
▁잔뜩	-10.5817
▁휴지	-10.5817
▁돈이	-10.582
▁닦고	-10.5821
▁샘플이	-10.5821
▁분명히	-10.5822
▁죽어	-10.5822
▁촉촉함	-10.5824
스런	-10.5824
▁앉아서	-10.5824
▁이런거	-10.5827
▁보내주셨어요	-10.5827
▁설치하고	-10.583
▁한봉지	-10.583
껄	-10.5831
편이	-10.5837
▁소리는	-10.5839
▁상품으로	-10.5841
▁직원	-10.5843
이렇게	-10.5843
▁사요	-10.5844
▁파리	-10.5844
▁썩	-10.5846
▁되는거	-10.5847
▁라디오	-10.5849
▁제안	-10.5851
▁수부지	-10.5855
▁받았구요	-10.5856
▁뒤집어	-10.5856
▁안해도	-10.5856
▁발볼	-10.5856
▁판매하는	-10.5859
▁드라이아이스	-10.5859
▁기억이	-10.586
▁맹	-10.586
개발	-10.5862
▁보면서	-10.5862
▁눈으로	-10.5865
▁태도	-10.5865
▁선이	-10.5868
▁사진이랑	-10.5868
가격에	-10.5869
▁두달	-10.5869
▁쓱	-10.587
▁홍삼	-10.5873
▁시중	-10.5876
▁한달동안	-10.5878
▁같음	-10.5881
화된	-10.5881
▁아닌가요	-10.5882
▁혹	-10.5886
▁가입	-10.5886
활동	-10.5887
주시	-10.5889
▁나와요	-10.5889
▁의하여	-10.5891
닌	-10.5892
줘요	-10.5893
▁멀	-10.5893
▁계열	-10.5893
▁사용감	-10.5893
달라고	-10.59
프리	-10.59
로서의	-10.5903
▁완벽하게	-10.5907
▁알콜	-10.5909
되어야	-10.591
잖아	-10.591
엿	-10.5911
▁엄청나게	-10.5913
좋다	-10.5914
샷	-10.5914
기의	-10.5917
▁단종	-10.5918
▁불편해서	-10.592
봤	-10.5921
▁예민	-10.5924
▁칫솔	-10.5925
▁외관	-10.5928
▁쓰고있는	-10.593
▁샀다가	-10.5932
▁퀄리티가	-10.5934
▁걸려서	-10.594
믄	-10.594
▁징	-10.5941
▁옆으로	-10.5941
더라	-10.5941
▁무기	-10.5943
▁세일할때	-10.5943
▁알이	-10.5946
▁시간도	-10.5946
이긴	-10.5947
엄마	-10.5951
▁입구	-10.5952
▁멀쩡	-10.5953
제로	-10.5954
▁세안후	-10.5954
기름	-10.5955
▁초콜릿	-10.5956
▁종류별로	-10.5957
▁털이	-10.5958
▁내장	-10.5959
▁되더라구요	-10.5959
마저	-10.5963
교환	-10.5965
▁질도	-10.5965
▁있을거	-10.5966
앗	-10.5966
지게	-10.5966
▁미세먼지	-10.5968
▁내리	-10.597
▁달아서	-10.5971
▁어쨌든	-10.5972
채로	-10.5974
써봤는데	-10.5976
▁불편하네요	-10.5979
할인	-10.5979
▁의하면	-10.5981
▁사용하면서	-10.5981
▁끈적임이	-10.5985
▁상징	-10.5991
▁진동	-10.5993
되었어요	-10.5996
▁아이라이너	-10.5998
시키	-10.6
자면	-10.6005
간다	-10.6007
▁비상	-10.6008
▁목적으로	-10.601
▁노인	-10.6013
▁관련된	-10.6013
▁업그레이드	-10.6014
▁장치	-10.6015
쪽으로	-10.6019
▁전화를	-10.6024
▁버리	-10.6026
▁빼곤	-10.6029
▁힘들어요	-10.6031
▁건지	-10.6031
에비해	-10.6032
▁배송되어	-10.6035
▁윗	-10.6036
니까요	-10.6037
▁생각했던것보다	-10.6038
▁나이가	-10.6041
▁느린	-10.6042
▁있겠지만	-10.6043
▁건조하지	-10.6045
▁중요	-10.6046
▁널	-10.6047
▁서양	-10.6047
▁배송해주셔서	-10.6051
▁좁	-10.6052
▁조절이	-10.6054
영화	-10.6056
▁편하	-10.6057
▁무향	-10.606
로써	-10.606
곳에	-10.606
▁생각보다는	-10.6061
해져요	-10.6062
▁코랄	-10.6063
기술	-10.6064
▁말았다	-10.6068
▁알려진	-10.6068
▁엘	-10.6069
엇는데	-10.6069
지않	-10.6072
▁향을	-10.6074
▁생각은	-10.6074
쓰던	-10.6076
▁광주	-10.6076
▁잘산거	-10.6079
정이	-10.6082
▁이리	-10.6086
판매	-10.6086
▁확실	-10.6086
▁만난	-10.6088
▁봐서	-10.6089
▁주인	-10.6093
▁싱크대	-10.6093
▁점도	-10.6094
▁만들었다	-10.6095
됐는데	-10.6096
▁한결	-10.6098
▁기기	-10.6099
▁조금은	-10.61
▁그렇다	-10.6101
▁와이프가	-10.6102
▁사무	-10.6105
▁불량이	-10.611
▁법률	-10.6111
지면	-10.6111
▁나온다	-10.6116
▁싸네요	-10.6117
▁얇아요	-10.6119
▁아닐	-10.6124
▁물리	-10.6125
▁통하여	-10.6126
▁핸드크림	-10.6128
▁상판	-10.6131
▁찐	-10.6133
▁짱이에요	-10.6134
▁뚝딱	-10.6135
▁진해서	-10.6138
스와	-10.6144
▁다음에는	-10.6145
▁가치	-10.6147
체제	-10.6149
▁것이며	-10.615
▁깜놀	-10.615
▁오지	-10.6151
▁잘먹네요	-10.6152
▁주지	-10.6152
▁녹아	-10.6154
▁탈색	-10.6157
▁화장대	-10.6157
▁하구요	-10.6158
▁월부터	-10.6158
▁쫄깃하고	-10.616
빛이	-10.6162
읍	-10.6166
▁묽	-10.6166
▁의해서	-10.6175
▁쓰던건데	-10.6175
▁의료	-10.6177
▁좋네용	-10.6178
▁쓰니까	-10.6178
▁워	-10.6183
▁대화	-10.6185
▁직후	-10.6186
판이	-10.6187
▁마셔	-10.619
▁것이라	-10.6192
▁피해	-10.6195
사항	-10.6197
▁녹지	-10.62
▁프린터	-10.6201
▁처음부터	-10.6202
▁낼	-10.6203
잘되고	-10.6206
▁음반	-10.6207
많	-10.6209
▁재고	-10.6213
▁무겁지	-10.6216
▁와우	-10.6217
▁외국인	-10.6217
▁때문이	-10.6218
▁가성비도	-10.622
▁허용	-10.6223
냈다	-10.6223
▁어렵	-10.6224
▁일상	-10.6224
▁모양도	-10.6225
▁겠어요	-10.6227
▁유분이	-10.6231
▁걸리	-10.6231
죄	-10.6233
▁매운맛	-10.6235
▁좋아하셔서	-10.6241
하셔야	-10.6242
▁넓고	-10.6243
▁테두리	-10.6246
▁주문하게	-10.6247
▁오빠	-10.6248
▁어떠한	-10.6248
▁붙이	-10.6249
▁줘서	-10.6249
▁의미를	-10.625
▁시대에	-10.6252
▁나오면	-10.6254
부의	-10.6256
▁차를	-10.6258
가방	-10.6258
▁액체	-10.6259
▁뽀송뽀송	-10.6266
왔고	-10.6266
▁출고	-10.6267
▁펄이	-10.6271
▁짜서	-10.6272
중이에요	-10.6272
▁셀	-10.628
▁쓰기엔	-10.6281
▁애플	-10.6283
있었어요	-10.6284
속에	-10.6286
▁택배사	-10.6289
지않은	-10.6292
▁저장	-10.6295
▁원칙	-10.6296
▁마음에들어요	-10.6296
▁튼튼하네요	-10.6297
▁저렴하	-10.6303
▁것인지	-10.6304
▁합리적인	-10.6308
▁아저씨	-10.6311
▁선물했어요	-10.6317
▁옷은	-10.6318
▁채소	-10.6318
▁토요일	-10.6323
그렇	-10.6325
▁상호	-10.6329
웠	-10.633
촉촉	-10.6333
▁손상	-10.6334
괜찮	-10.6335
▁관심이	-10.6339
▁사용해본	-10.6341
▁없지	-10.6344
꾼	-10.6347
▁칼배송	-10.6348
것을	-10.6348
▁맡	-10.6349
놈	-10.6352
▁돼지	-10.6352
금을	-10.6352
면이	-10.6357
기까지	-10.6357
▁빨간	-10.636
▁없었던	-10.636
▁일어나면	-10.6363
거보다	-10.6366
▁말이다	-10.6368
밍	-10.6368
▁신선	-10.6368
▁맛없	-10.6371
▁짝	-10.6371
▁무난해요	-10.6371
▁환자	-10.6372
했다가	-10.6373
딘	-10.6373
▁슬	-10.6374
사에	-10.6375
▁구매하세요	-10.6377
▁운동을	-10.6379
국가	-10.6379
▁교사	-10.6382
▁시켜봤는데	-10.6383
▁내구성이	-10.6384
▁촉촉하네요	-10.639
예정	-10.639
▁숫자	-10.6391
▁기름기	-10.6393
▁칼로리	-10.6394
▁좋아라	-10.6394
▁일제	-10.6394
▁삼각대	-10.6395
▁세력	-10.6398
▁상관없	-10.6398
▁다른분들	-10.6402
▁오른	-10.6404
▁푹신하고	-10.6406
불편	-10.6406
우는	-10.6408
말이	-10.641
▁입력	-10.6413
▁않는데	-10.6414
▁조성	-10.6414
▁검수	-10.6415
▁해주는	-10.6416
▁패키지	-10.6418
졌네요	-10.6418
▁상처	-10.6419
▁소유	-10.6419
먹으려고	-10.6426
사이	-10.6428
차가	-10.6428
▁이주	-10.6429
롬	-10.6437
▁파일	-10.6439
▁잘되는	-10.6445
상자	-10.6445
랭	-10.6446
통이	-10.6446
▁쫀득쫀득	-10.6446
랩	-10.645
▁생각해요	-10.645
▁경기도	-10.6453
▁출장	-10.6456
▁회색	-10.6457
▁가방에	-10.6458
▁부탁드립니다	-10.6459
▁사은품이	-10.6461
▁사용가능	-10.6461
▁단어	-10.6462
▁만족스럽게	-10.6463
했는지	-10.6464
혁	-10.6469
▁으	-10.6472
그리	-10.6472
▁소음은	-10.6474
▁검토	-10.6475
▁입으려고	-10.6477
▁그립감	-10.6478
▁씻어	-10.6478
찮	-10.6479
▁적어도	-10.6481
▁맛있어용	-10.6482
▁시설	-10.6483
▁압력	-10.6484
편이고	-10.6486
시다	-10.6489
▁압축	-10.6489
▁싸이즈	-10.6489
▁맛난	-10.6489
▁뉴스	-10.649
엽	-10.6492
봐요	-10.6493
아들	-10.6494
▁느끼는	-10.6495
▁기가	-10.6498
렉	-10.6502
▁컬러가	-10.6502
▁속상	-10.6503
▁호불호가	-10.6505
블랙	-10.6508
▁그립감도	-10.651
▁사정	-10.6513
할때마다	-10.6514
작업	-10.6514
▁새끼	-10.6517
▁사달라고	-10.6517
▁무사히	-10.6517
▁이중	-10.6518
▁임금	-10.6518
첩	-10.6519
▁햄	-10.652
▁예약	-10.6521
▁최소	-10.6522
▁이거는	-10.6523
▁기대해봅니다	-10.6526
마시	-10.6527
자고	-10.6527
해야겠어요	-10.653
▁바삭	-10.6531
형이	-10.6533
▁되면서	-10.6535
▁당연	-10.6536
▁구매후	-10.6536
▁그들이	-10.6537
▁스마트폰	-10.6538
▁스트	-10.6539
▁빨아	-10.6542
▁살살	-10.6544
르고	-10.6545
이라니	-10.6545
▁와이파이	-10.6547
으신	-10.6548
▁겨울엔	-10.6551
도없고	-10.6553
▁개입	-10.6554
▁증거	-10.6555
▁양배추즙	-10.6556
▁리뷰보고	-10.656
껏	-10.6561
▁주세요	-10.6562
였네요	-10.6563
▁건조함이	-10.657
▁펜슬	-10.6571
▁쓰시는	-10.6572
듯하네요	-10.6575
▁건축	-10.6578
▁넉넉해요	-10.6579
▁누워	-10.658
군을	-10.6582
▁설명이	-10.6584
▁콜라겐	-10.6586
긴했지만	-10.6587
▁느껴지네요	-10.6589
▁비하면	-10.6589
▁개인적인	-10.659
▁재판	-10.6597
형이라	-10.6599
▁개는	-10.6599
이든	-10.6603
▁창문	-10.6604
▁길어	-10.6604
▁주문해봤는데	-10.6604
▁세포	-10.6605
▁주식	-10.6606
▁기다리고	-10.6608
▁쓰네요	-10.661
▁분유	-10.661
▁쟁여두고	-10.6611
종이	-10.6613
▁마셔요	-10.6617
▁스킨로션	-10.6619
▁분정도	-10.662
▁닿는	-10.6622
▁재산	-10.6624
텐	-10.6625
군이	-10.6626
▁관찰	-10.6628
▁통한	-10.6631
▁유일한	-10.6631
▁때에	-10.6631
▁물어	-10.6632
▁보풀	-10.6633
▁달콤	-10.664
▁상대로	-10.6641
▁들었는데	-10.6642
끼리	-10.6642
▁모여	-10.6648
▁잘샀네요	-10.6652
▁주문할께요	-10.6653
▁총알	-10.6653
▁할아버지	-10.6657
같은게	-10.6658
▁잘사용하고	-10.666
▁빌	-10.6663
▁시골	-10.6664
▁싸움	-10.6669
▁깨진	-10.6679
대박	-10.668
▁예방	-10.668
▁네이비	-10.668
▁제대	-10.668
▁체계	-10.6683
▁마이	-10.6683
용량	-10.6683
▁끝나	-10.6684
버스	-10.6688
▁뻔	-10.6688
▁고민이	-10.669
▁개당	-10.6696
▁찌그러진	-10.6696
▁그에게	-10.6696
▁에어프라이어	-10.6696
▁맺	-10.6697
▁얘	-10.6697
론을	-10.6697
▁케이스를	-10.6699
▁연고	-10.6699
었더니	-10.6701
▁부상	-10.6703
▁월요일	-10.6704
▁사이즈를	-10.6704
▁아이들은	-10.6708
▁생각나서	-10.6713
깃	-10.6714
▁소량	-10.6717
▁무시	-10.6721
▁삿	-10.6722
▁등급	-10.6722
▁부모님께	-10.6723
▁잘먹	-10.6724
드렸는데	-10.6724
냥	-10.6727
▁자연스럽고	-10.6728
▁고르	-10.6729
▁말로	-10.6729
도착	-10.673
▁정확	-10.6731
▁나옵니다	-10.6732
▁사실상	-10.6732
▁사드렸어요	-10.6733
▁외교	-10.6734
벨	-10.6734
▁표준	-10.6735
하기가	-10.6736
▁욕	-10.674
하자마자	-10.6741
▁가격과	-10.6742
주기	-10.6742
▁손톱	-10.6743
▁씹	-10.6744
▁사는데	-10.6746
뒤에	-10.6748
▁정돈	-10.6754
▁정보를	-10.6756
미가	-10.6757
▁자신	-10.6758
▁걸렸지만	-10.6759
▁피부톤	-10.676
안하고	-10.6761
▁올리브	-10.6768
▁여튼	-10.6768
▁여름엔	-10.6769
▁뽀	-10.6769
▁김치만두	-10.6771
▁아픈	-10.6772
▁슈피겐	-10.6772
▁달달	-10.6773
▁다니는	-10.6773
▁굳굳	-10.6774
▁배송기사님	-10.6775
▁쓰시	-10.6776
▁똥	-10.6778
▁과정	-10.678
하고자	-10.6784
▁저항	-10.6785
▁확인하고	-10.6787
▁그치만	-10.679
▁수면	-10.6792
▁헌법	-10.6795
▁안좋아	-10.6795
논	-10.6798
▁직장	-10.6798
▁안써봐서	-10.68
▁기미	-10.68
▁서랍장	-10.6801
▁인천	-10.6807
신발	-10.6812
▁저에겐	-10.6813
▁투표	-10.6814
▁나갈	-10.6816
▁불가	-10.6818
▁챙겨주셔서	-10.6819
▁창조	-10.6821
▁갖다	-10.6821
▁포함한	-10.6822
편입니다	-10.6827
▁탓	-10.6829
▁협력	-10.683
▁그러네요	-10.683
▁굿굿굿	-10.6831
▁레이	-10.6834
웅	-10.6835
버리고	-10.6837
▁부드럽	-10.6837
좋았어요	-10.6839
▁뭔지	-10.684
겨울	-10.6842
▁입은	-10.6847
▁자기전에	-10.6847
▁가능합니다	-10.6848
▁충분한	-10.6849
▁넣을	-10.6849
▁신호	-10.6854
▁의견	-10.6854
▁코팅	-10.6854
▁일단은	-10.6855
▁되어있고	-10.6856
거라서	-10.6857
재질	-10.6859
쳐서	-10.686
▁시원	-10.686
연결	-10.6861
건가	-10.6863
아침	-10.6864
▁매콤	-10.6865
였지만	-10.6866
▁실천	-10.6866
▁방식	-10.6869
도좋고	-10.6874
▁생활을	-10.6874
▁방법으로	-10.6875
▁온가족이	-10.6878
않아서	-10.688
특히	-10.6882
그래	-10.6883
▁원두	-10.6887
꼭	-10.6888
신을	-10.6889
구가	-10.689
기에는	-10.689
▁내구성	-10.689
준비	-10.6895
▁주어	-10.6896
▁부담스럽	-10.6897
▁괜찮으면	-10.6898
커서	-10.69
▁유분기가	-10.6902
▁하였습니다	-10.6904
질이	-10.6904
▁둘러	-10.6911
▁이상하게	-10.6915
▁염려	-10.6917
▁고통	-10.6921
▁여기에서	-10.6921
▁첫날	-10.6922
▁접촉	-10.6922
▁보이차	-10.6923
된다는	-10.6925
사실	-10.6931
▁아까	-10.6931
▁홈런	-10.6931
▁삶을	-10.6932
▁캡	-10.6932
▁저만	-10.6933
▁구별	-10.6935
더라구여	-10.6936
▁분들께	-10.6938
▁철도	-10.6938
▁편할	-10.6938
▁쓱배송	-10.6939
▁나에게	-10.6943
▁떨어지고	-10.6943
잇어요	-10.6945
샘플	-10.6946
▁편안하게	-10.6947
룸	-10.6947
▁높아	-10.6947
보니까	-10.6948
▁도대체	-10.695
▁질리지	-10.6954
▁어머니께서	-10.6954
▁어머니는	-10.6954
▁수월	-10.6954
▁안좋	-10.6957
▁옮기	-10.6961
레스	-10.6963
▁들어있	-10.6963
▁좋아지	-10.6965
▁편해	-10.6967
매우	-10.6968
▁치즈가	-10.6969
▁손목	-10.6971
용기	-10.6971
▁사회의	-10.6973
▁생기고	-10.6974
▁영업	-10.6976
▁음료수	-10.6976
▁겨울에는	-10.6977
▁통이	-10.6977
▁단순	-10.6978
조사	-10.698
▁패배	-10.6981
▁오래가고	-10.6981
▁밀어	-10.6981
▁만들었	-10.6981
아가	-10.6984
▁넓어	-10.6985
▁책장	-10.6988
▁놈	-10.6989
▁풀무원	-10.699
▁현장	-10.6993
활	-10.6995
▁제품이라서	-10.6996
▁탄력	-10.6996
랑은	-10.6997
▁쓸만	-10.6998
▁데이터	-10.6998
성능	-10.6999
▁같지	-10.7001
▁전자렌지에	-10.7003
▁그런건	-10.7003
▁자랑	-10.7003
▁홈플러스	-10.7004
▁똑	-10.7007
상으로	-10.701
▁몇달	-10.7011
▁예쁜데	-10.7013
시길	-10.7014
▁진실	-10.7014
▁헤드	-10.7022
▁마찬가지	-10.7022
▁삐아	-10.7023
▁벗어나	-10.7023
▁없게	-10.7025
꿀	-10.7028
▁입학	-10.7028
▁배송상태	-10.7034
현상	-10.7035
▁사태	-10.7038
▁자는	-10.7041
하다보니	-10.7044
▁주도	-10.7045
▁지시	-10.7046
▁사회주의	-10.7047
확실히	-10.7048
▁민중	-10.7048
▁대상으로	-10.7048
▁믿음	-10.7049
▁주체	-10.705
장의	-10.7054
▁쓸려고	-10.7057
뇨	-10.7057
▁결과를	-10.7057
▁컸	-10.7058
봤습니다	-10.7061
씨의	-10.7063
▁파견	-10.7065
▁보일	-10.7069
기와	-10.707
▁대기	-10.707
히고	-10.7072
▁먹을만해요	-10.7073
사와	-10.7073
▁분말	-10.7076
▁이상으로	-10.7076
▁점령	-10.7076
관이	-10.7077
▁만원대	-10.708
▁가성비갑	-10.708
▁다크	-10.7082
▁물통	-10.7082
▁크기에	-10.7086
▁코트	-10.7088
▁만점	-10.7089
해줘서	-10.709
▁팍팍	-10.7091
▁어려움	-10.7091
▁사용시	-10.7092
라며	-10.7093
▁일어나는	-10.7094
▁아름다운	-10.7096
▁담배	-10.7096
▁발리는	-10.7096
▁찌그러져	-10.7098
▁비밀	-10.71
▁샀더니	-10.7101
▁느껴져서	-10.7105
▁착용감이	-10.7107
▁고등학교	-10.7108
▁가벼워요	-10.7109
▁속으로	-10.711
▁될것	-10.711
▁헌	-10.7111
졌습니다	-10.7113
튼튼	-10.7114
▁원단	-10.7117
▁노란	-10.7117
▁셋	-10.7119
▁뛰어나	-10.712
내가	-10.7121
▁비싼거	-10.7125
▁신경을	-10.7127
▁첨가	-10.7127
젤리	-10.7128
삿	-10.7128
▁아몬드	-10.7128
할거	-10.7128
리에	-10.7129
▁아쉬움	-10.713
▁귀여운	-10.7133
해졌어요	-10.7133
▁나아가	-10.7135
▁택배가	-10.7139
▁맡아	-10.714
▁스텐	-10.714
▁지휘	-10.7144
▁발라주면	-10.7146
▁머리결이	-10.7146
▁형제	-10.7147
▁무게도	-10.7149
랐	-10.7149
▁애매	-10.7149
▁놓은	-10.715
▁물기	-10.7153
▁힘드네요	-10.7154
▁거실에	-10.7157
시켰는데	-10.7157
베리	-10.7159
▁가네요	-10.716
▁곳은	-10.7161
▁아이는	-10.7161
▁가져다	-10.7162
폼	-10.7162
▁말려	-10.7163
좋다고	-10.7164
▁실현	-10.7164
먹을때	-10.7166
▁지어	-10.7166
▁오래오래	-10.7167
▁드시고	-10.7168
▁뜻을	-10.7168
▁아빠가	-10.717
좋았	-10.7172
▁호환	-10.7173
▁잘먹어서	-10.7176
▁오메가	-10.7179
닭	-10.7179
▁커다란	-10.7179
▁부대	-10.718
▁받게	-10.7181
▁애가	-10.7181
▁흐	-10.7182
▁푹신	-10.7184
▁아쉬운건	-10.7185
일까	-10.7185
레이	-10.7186
▁잘먹었어요	-10.7186
▁들어갔	-10.719
린다	-10.719
▁국수	-10.7191
▁사례	-10.7193
▁고리	-10.7194
▁걸린	-10.7194
▁목욕	-10.7195
올리	-10.7196
▁댓글	-10.7198
▁최초로	-10.7202
▁토지	-10.7204
▁속눈썹	-10.7205
▁싱싱	-10.7206
▁구매평	-10.7206
수있어서	-10.7206
▁두통째	-10.7211
▁사람들에게	-10.7213
▁쓰려구요	-10.7213
▁위협	-10.7215
▁이네요	-10.7216
르르	-10.7218
▁완벽한	-10.7218
▁보단	-10.7221
▁출출할때	-10.7222
▁이른바	-10.7223
▁잘받았	-10.7224
▁흐르는	-10.7225
▁보충	-10.7228
되게	-10.7231
▁상자에	-10.7231
▁연주	-10.7236
▁기장	-10.7243
▁힘들어서	-10.7246
많아서	-10.7248
▁종류가	-10.7249
한지	-10.725
▁하더라도	-10.725
▁사장	-10.7253
▁안먹	-10.7254
▁떠서	-10.7255
▁화사해	-10.7256
빼고	-10.7256
▁구매한건데	-10.7257
▁찾아보다가	-10.7257
▁사러	-10.7258
▁들은	-10.7258
해지	-10.7263
킨	-10.7265
▁헐	-10.7266
▁틈	-10.7268
▁빅	-10.7268
두유	-10.7268
▁사용중이에요	-10.727
▁파시고	-10.7272
렬	-10.7272
할께요	-10.7273
같은거	-10.7274
▁화장솜에	-10.7277
▁저에게는	-10.7279
상에	-10.7279
▁특성	-10.7281
▁발랐을때	-10.7282
▁컬	-10.7282
▁샘플을	-10.7283
▁전후	-10.7284
▁탐	-10.7286
▁덜어	-10.7287
▁묘사	-10.729
▁아내	-10.7291
중인	-10.7291
▁쫀득	-10.7292
▁나머지는	-10.7292
셋	-10.7293
▁감각	-10.7294
▁전자렌지	-10.7294
▁가수	-10.7294
▁주면	-10.7295
▁비용	-10.7297
▁두께가	-10.7297
▁도쿄	-10.7297
▁넉넉하네요	-10.7298
▁무겁	-10.7302
▁맛있을	-10.7304
▁개별포장	-10.7307
▁해주고	-10.7307
▁미술	-10.7308
▁근처	-10.7308
▁아파서	-10.7309
땡	-10.7309
▁높고	-10.7311
▁소년	-10.7312
▁짠	-10.7313
덴	-10.7314
▁일요일	-10.7316
▁무겁고	-10.7317
▁달달하니	-10.7317
위원	-10.7318
▁경제적	-10.732
제는	-10.7321
▁주장했다	-10.7323
▁상황에서	-10.7327
▁비슷	-10.7327
음료	-10.7329
▁폼클렌징	-10.733
▁모두가	-10.733
▁스푼	-10.7331
▁에이	-10.7331
▁세수	-10.7333
▁폭발	-10.7335
▁금요일	-10.7338
▁장만	-10.7339
▁쭈욱	-10.7339
▁좋았을텐데	-10.734
탱	-10.734
▁길어요	-10.7341
▁판매자분	-10.7341
▁여자가	-10.7345
▁전략	-10.7345
납	-10.7345
▁착용감도	-10.7346
▁귀가	-10.7346
▁백제	-10.7348
▁지연	-10.7348
▁특징	-10.7349
▁안전하고	-10.7349
▁사이에서	-10.7349
▁대표적인	-10.7351
▁좋을것같아요	-10.7353
▁개만	-10.7353
▁청년	-10.7356
▁공공	-10.7358
다보면	-10.7359
자체	-10.7365
대용으로	-10.7366
▁기대했는데	-10.7366
▁친정	-10.7369
▁상의	-10.7371
▁늘어	-10.7371
▁연합	-10.7373
▁않기	-10.7375
▁생각에	-10.738
▁편안하고	-10.7382
▁나가는	-10.7385
▁센스	-10.7385
▁가족들이	-10.7386
▁쇼핑백	-10.7387
국의	-10.7389
▁면역력	-10.7389
▁먹는거	-10.739
▁생겼	-10.739
위를	-10.7391
기도하고	-10.7395
▁쫀쫀한	-10.7395
▁학생들	-10.7395
▁대우	-10.7402
▁시대의	-10.7403
▁칼라	-10.7406
▁닫	-10.7406
▁전문가	-10.7407
▁식으로	-10.741
▁구수하고	-10.7414
대표	-10.7414
▁교황	-10.7415
▁기둥	-10.7415
인지라	-10.7416
▁푸석	-10.7419
랴	-10.7422
▁있었음	-10.7422
▁챙겨먹	-10.7423
▁개념	-10.7424
▁안들어	-10.7427
▁낮에	-10.743
간에	-10.743
▁와인	-10.7435
▁장식	-10.7436
▁초대	-10.7436
▁속도가	-10.7439
뿌	-10.744
▁너무좋네요	-10.7442
▁바닐라	-10.7443
시간에	-10.7445
바닥	-10.7445
▁크리스마스	-10.7447
▁도저히	-10.7449
▁붙인	-10.7449
▁아이를	-10.7452
임이	-10.7452
아이가	-10.7454
▁소프트웨어	-10.7454
포트	-10.7454
▁쓸만해요	-10.7456
▁없기	-10.7458
▁감안	-10.7459
▁이웃	-10.7462
▁안맞	-10.7465
필름	-10.7465
▁오트밀	-10.7467
▁탑	-10.7467
▁돌리면	-10.7468
여자	-10.7469
었으면	-10.7469
으려	-10.7472
▁경기를	-10.7472
▁건전지	-10.7474
▁뜨는	-10.7475
대회	-10.7476
▁변화가	-10.7476
크고	-10.7476
▁사용했던	-10.748
이니까	-10.7482
▁유통	-10.7483
▁몰랐는데	-10.7484
▁행거	-10.7484
▁사라지	-10.7485
지기	-10.7487
▁사진이	-10.7488
▁구성품	-10.7488
▁부문	-10.7493
사건	-10.7497
▁생강	-10.7497
▁고급스러운	-10.7498
▁될듯	-10.75
상이	-10.7501
다고해서	-10.7501
▁지하철	-10.7503
▁녹음	-10.7504
▁끝이	-10.7504
▁피가	-10.7506
▁봐도	-10.7507
▁이거만	-10.7509
▁이쁜데	-10.7509
▁시공	-10.7509
▁배송빠릅니다	-10.7511
▁캐릭터	-10.7511
▁접착	-10.7512
▁배경	-10.7516
▁블	-10.7526
▁사실은	-10.7529
▁없었	-10.753
▁텔레비전	-10.7531
▁초반	-10.7533
▁쓰는거	-10.7534
▁의회	-10.7537
▁사용하기도	-10.7537
▁보내주시고	-10.7538
▁종류의	-10.7538
수의	-10.7539
▁지하	-10.754
용품	-10.7542
▁마지막으로	-10.7543
공사	-10.7543
깁니다	-10.7552
▁먹고있는데	-10.7554
▁갈등	-10.7554
▁손질	-10.7554
인은	-10.7556
▁그녀가	-10.7557
▁거짓말	-10.7558
▁길이는	-10.756
▁자기가	-10.7563
▁자격	-10.7564
▁물어보	-10.7565
보다도	-10.7565
▁부작용	-10.7566
▁것들이	-10.7566
▁지퍼백	-10.7566
벤	-10.7568
▁기반	-10.7573
▁오면	-10.7574
▁식민지	-10.7579
▁바뀌	-10.7579
▁카레	-10.758
▁조용하고	-10.7581
▁세번	-10.7582
▁나오지	-10.7583
▁다운	-10.7584
▁빡빡	-10.7584
▁위의	-10.7587
▁농심	-10.7588
밭	-10.7588
▁무엇인가	-10.7589
▁크림은	-10.759
▁사용하고있어요	-10.7591
▁쫄깃쫄깃	-10.7594
▁박사	-10.7594
▁중국의	-10.7594
▁편리하네요	-10.7595
▁가능하고	-10.7595
깔	-10.7596
▁상품평을	-10.7599
▁돌아오	-10.76
▁없더라구요	-10.76
▁무역	-10.7606
▁사진으로	-10.7607
▁의도	-10.7609
▁방어	-10.7609
▁먹여	-10.7612
▁채널	-10.7612
▁특수	-10.7616
▁추천드려요	-10.7619
맛있	-10.762
▁됨	-10.7621
▁술을	-10.7622
▁상큼	-10.7622
▁어색	-10.7623
싼	-10.7625
▁오버핏	-10.7625
▁땀이	-10.7626
▁먹는게	-10.7626
▁사실이	-10.7626
▁잘맞아요	-10.7627
우선	-10.7627
마트	-10.7628
▁주머니	-10.7629
회를	-10.7629
▁파손없이	-10.7635
▁안됩니다	-10.7636
▁감싸	-10.7636
▁보게	-10.7637
렛	-10.7637
▁스팸	-10.7638
객	-10.7638
▁수량	-10.7638
▁잘나고	-10.7638
▁밝기	-10.7639
릉	-10.7639
▁불리는	-10.7641
▁뿐이다	-10.7641
▁알아보	-10.7641
썼는데	-10.7642
겹	-10.7644
▁덜하고	-10.7647
▁느낌으로	-10.7647
위해	-10.7649
▁드시	-10.765
▁고양이가	-10.7654
▁최신	-10.7657
▁극복	-10.7658
▁맞는거	-10.766
공간	-10.7661
▁대체적으로	-10.7664
▁긴장	-10.7665
▁컴	-10.7666
▁냉장	-10.7667
▁없는것	-10.7668
▁임산부	-10.7669
▁대립	-10.767
▁잠을	-10.7672
▁가격을	-10.7672
▁나을	-10.7675
▁마시는데	-10.7676
계획	-10.7679
캐	-10.768
▁여인	-10.7681
▁차이를	-10.7687
▁득점	-10.7689
▁입소문	-10.769
▁용어	-10.769
▁지닌	-10.7691
▁느낌의	-10.7692
▁선물용	-10.7695
▁장사	-10.7698
▁이제품만	-10.7699
▁거주	-10.7699
▁종이컵	-10.7699
▁슬림	-10.7706
▁생선	-10.7706
▁수건	-10.7707
▁김밥	-10.7708
▁위치한	-10.7709
▁내게	-10.771
▁단단한	-10.7713
▁이용하여	-10.7715
과정	-10.7715
인들이	-10.7716
기때문에	-10.7717
▁유용한	-10.7721
▁그랬는데	-10.7722
▁특이	-10.7722
▁더운	-10.7725
두개	-10.7727
전이	-10.7728
▁벗	-10.7731
▁걸리는	-10.7731
▁육군	-10.7731
▁간혹	-10.7732
▁베스트	-10.7733
▁브라질	-10.7734
보았습니다	-10.7737
▁않도록	-10.7737
▁뒷면	-10.7738
마시고	-10.7739
▁어른들	-10.7739
▁태어나	-10.774
▁동료	-10.7741
긴했는데	-10.7744
톨	-10.7745
▁엔진	-10.7747
▁나라의	-10.7749
▁올리고	-10.775
▁남부	-10.775
가봐요	-10.7751
▁아쉬운점은	-10.7752
▁마침내	-10.7753
▁제품사용횟수	-10.7753
▁촉감	-10.7753
▁비비크림	-10.7758
▁예뻐	-10.7759
▁갑입니다	-10.7759
▁미국에서	-10.7759
아니고	-10.7761
그룹	-10.7766
▁향상	-10.7767
▁한개씩	-10.7769
주문했어요	-10.7769
모두	-10.777
▁삐	-10.7773
불량	-10.7775
▁쟁여놓	-10.7776
▁바탕으로	-10.7776
시대	-10.7777
▁먹다	-10.7778
▁끌	-10.778
띠	-10.7784
▁변화를	-10.7786
▁동양	-10.7789
▁듣는	-10.7796
의자	-10.7797
▁안심이	-10.7797
▁식감	-10.7801
▁사용하고있습니다	-10.7801
▁드릴	-10.7802
걸까요	-10.7803
▁생성	-10.7804
▁조만간	-10.7804
▁사진에	-10.7805
▁가능하다	-10.7807
받았어요	-10.7808
▁무렵	-10.7808
▁아직까진	-10.7811
▁대개	-10.7811
▁폐지	-10.7813
▁샤워기	-10.7814
▁구경	-10.7814
▁친구들	-10.7814
되기도	-10.7815
▁거친	-10.7815
▁혼란	-10.7816
▁월에는	-10.7817
사면	-10.7818
▁믹스	-10.7819
준다	-10.782
▁공기청정기	-10.7823
▁듣	-10.7824
▁고전	-10.7825
▁화장품을	-10.7825
▁불법	-10.7825
▁연극	-10.7826
소를	-10.7827
▁나쁘진	-10.7828
예정입니다	-10.783
뜯	-10.783
▁세정력이	-10.7832
▁블로그	-10.7835
팩트	-10.7838
▁써보려구요	-10.7839
▁작전	-10.7839
▁범위	-10.784
▁한장	-10.7841
▁잘맞	-10.7842
▁베이비	-10.7842
▁있겠어요	-10.7843
▁세정력	-10.7847
학과	-10.7848
▁편하다고	-10.7849
앰플	-10.785
▁뿌듯	-10.785
▁순수	-10.7855
▁두피에	-10.7862
▁기여	-10.7867
▁말아	-10.7867
▁구성되어	-10.7868
▁엄마도	-10.7868
▁곰팡이	-10.787
▁바라며	-10.787
▁같은게	-10.7871
▁적절한	-10.7871
▁살수	-10.7872
▁요거트	-10.7874
▁흘리	-10.7877
▁어머님	-10.7881
▁옴	-10.7884
▁좋았던	-10.7885
것과	-10.7889
▁보완	-10.789
▁예민해서	-10.7891
▁안정감	-10.7892
르트	-10.7892
▁꼴	-10.7894
▁용도	-10.7894
하셨	-10.7895
▁봤	-10.7895
▁표면	-10.7897
▁붙여서	-10.7899
▁번에	-10.7905
▁생각도	-10.7907
몸	-10.7907
되었	-10.7908
▁사용하	-10.7909
▁파이	-10.791
▁좋아하십니다	-10.7912
▁건성이라	-10.7915
▁목표	-10.7916
나와서	-10.7918
▁만화	-10.7918
▁샀던	-10.7919
▁아마도	-10.7919
▁상대적으로	-10.7922
▁나타나는	-10.7923
▁마세요	-10.7929
▁오셔서	-10.7929
트로	-10.7932
▁못했는데	-10.7932
▁번역	-10.7933
▁이루	-10.7935
▁무엇을	-10.7936
▁한달정도	-10.7937
▁배송비가	-10.7937
▁화질도	-10.7937
▁바쁜	-10.7941
▁넘좋아요	-10.7943
▁불편함이	-10.7945
듬	-10.7945
차를	-10.7945
▁아이스박스에	-10.7945
▁스티로폼	-10.7949
성분이	-10.7949
▁조약	-10.7951
▁괜찮았습니다	-10.7954
밑	-10.7954
▁프레임	-10.7957
▁발려요	-10.796
먹어서	-10.7961
부족	-10.7963
▁비싸요	-10.7966
보여	-10.7967
▁사은품까지	-10.7969
▁반대로	-10.797
▁무리가	-10.7971
▁한반도	-10.7972
▁다양	-10.7975
때문인지	-10.7976
▁일주일정도	-10.7977
▁대략	-10.7979
▁추가구매	-10.798
픽	-10.7981
욥	-10.7981
▁사내	-10.7981
▁구매했고	-10.7984
▁비교해	-10.7987
▁여름이라	-10.7988
▁견고	-10.7989
▁찾을	-10.799
▁부드럽네요	-10.799
▁원인	-10.7992
▁심플	-10.7994
▁장면	-10.7998
▁오일이	-10.7999
▁수업	-10.8003
▁롱	-10.8006
들어가	-10.8006
아기	-10.8006
▁기다린	-10.8007
▁합격	-10.8008
기구	-10.8009
▁매력	-10.8009
▁좋다해서	-10.801
▁닥터	-10.8011
▁재구입	-10.8011
▁단단하고	-10.8014
▁휴대	-10.8015
▁쓰다보면	-10.8019
▁돌리	-10.802
▁선택했어요	-10.8021
▁디자인과	-10.8022
▁받기	-10.8025
겁	-10.8026
▁솜	-10.8026
▁바깥	-10.8027
물로	-10.8028
▁컬러도	-10.8037
▁외에	-10.8037
▁별개	-10.8038
까지도	-10.8039
▁전이지만	-10.8041
세력	-10.8043
었거든요	-10.8043
▁하는지	-10.8043
상품평	-10.8046
▁분도	-10.8047
돌아	-10.8049
▁잡지	-10.8049
▁뭉	-10.8049
▁볶음밥	-10.8049
▁복잡	-10.805
▁빨리왔어요	-10.8051
학적	-10.8051
줬는데	-10.8051
▁협상	-10.8053
것같은데	-10.8053
▁맘에들어	-10.8053
▁펼쳐	-10.8056
▁추천하고	-10.8057
시키기	-10.8058
▁의자가	-10.806
▁잘먹고있습니다	-10.8061
▁떨어지네요	-10.8062
▁사용할때	-10.8063
▁성립	-10.8064
▁추천받아	-10.8065
▁가벼워	-10.8067
▁눈가	-10.807
▁아쉬웠어요	-10.8073
▁아니었	-10.8073
▁발리	-10.8075
▁붙어서	-10.8075
▁음식을	-10.8076
▁상품평보고	-10.8078
이였는데	-10.8078
▁구매확정	-10.8081
했거든요	-10.8081
▁동서	-10.8082
▁라운드	-10.8084
렸는데	-10.8085
▁과정을	-10.8085
▁연결해서	-10.8086
▁요소	-10.8087
▁질감	-10.8087
▁라면은	-10.8089
▁일어나서	-10.809
겐	-10.809
▁사람에게	-10.8091
▁도톰하고	-10.8093
▁무게감이	-10.8095
혀서	-10.8095
▁물었다	-10.8095
내려	-10.8096
▁습	-10.8097
▁할것	-10.8097
▁우동	-10.8098
▁종아리	-10.8103
쇠	-10.8107
▁있던데	-10.8107
▁싼맛에	-10.8108
▁거북	-10.811
▁피부톤이	-10.811
수있는	-10.8111
▁맘에드네요	-10.8111
▁추운	-10.8115
▁것이고	-10.8115
▁느려요	-10.8116
▁동의	-10.8118
▁실행	-10.8123
▁티트리	-10.8123
▁지역의	-10.8124
▁감고	-10.8124
뽀	-10.8125
▁놀이	-10.8125
섬	-10.8126
▁흉	-10.8127
긋	-10.8127
▁중반	-10.8127
▁연말	-10.8127
▁체결	-10.8128
▁두번째구매	-10.8129
▁최초	-10.8132
난다	-10.8133
봤지만	-10.8133
▁못한다	-10.8135
▁끝난	-10.8135
▁글자	-10.8135
스크	-10.8138
▁설치가	-10.8138
입술	-10.8139
십니다	-10.8139
▁괜찮음	-10.8143
받았	-10.8146
▁안되어	-10.8148
나오	-10.8148
▁읽고	-10.8151
▁명령	-10.8152
▁보통입니다	-10.8155
▁민간	-10.8155
▁질문	-10.8155
▁문서	-10.8156
▁불편합니다	-10.8157
▁현재의	-10.8158
▁갈아타	-10.8158
폴	-10.8158
랫	-10.8159
기능이	-10.816
▁소세지	-10.8161
▁촉	-10.8161
▁리모컨	-10.8163
봉지	-10.8163
▁허벅지	-10.8164
관을	-10.8166
▁고민을	-10.8168
▁소주	-10.8168
하기는	-10.8169
닫	-10.8169
나온	-10.8175
파우더	-10.8176
▁좋으	-10.8177
▁먹다보니	-10.8178
기고	-10.8179
브라운	-10.8179
▁이마	-10.818
뚜껑	-10.8181
▁목에	-10.8182
로만	-10.8182
트러블	-10.8183
정치	-10.8184
하죠	-10.8185
▁넣기	-10.8187
▁폭이	-10.8187
▁닿	-10.8187
▁바삭하고	-10.8189
자체가	-10.819
▁좋길래	-10.819
▁잡아주	-10.819
들보다	-10.819
▁페어링	-10.8192
▁냉동실	-10.8193
▁잘못된	-10.8194
조아	-10.8194
▁수록	-10.8195
하지않	-10.8196
▁이유를	-10.8197
▁호텔	-10.8197
구를	-10.8197
▁발림도	-10.8201
▁어쩌	-10.8203
▁먹어보려구요	-10.8203
▁별다른	-10.8204
▁도구	-10.8206
속도	-10.8207
제일	-10.8208
버튼	-10.8208
인거같아요	-10.8209
▁리얼	-10.8211
▁그렇다면	-10.8212
▁해주셨어요	-10.8214
▁음질은	-10.8214
써도	-10.8217
▁꽂	-10.8218
질을	-10.8219
리라	-10.8219
구입했어요	-10.8219
▁본래	-10.822
하려면	-10.8221
▁빠른배송으로	-10.8224
▁읽어	-10.8224
▁넘는	-10.8226
▁충돌	-10.8226
▁씩	-10.8227
▁얇아	-10.8228
▁드렸어요	-10.8229
▁들어있고	-10.8229
▁가야	-10.8231
▁기회가	-10.8231
▁피부과에서	-10.8234
▁포인트가	-10.8235
걸이	-10.8235
▁여자친구	-10.8238
▁빛이	-10.8239
모델	-10.8239
▁완젼	-10.8241
▁달성	-10.8241
▁날짜에	-10.8242
▁이름으로	-10.8244
▁강의	-10.8245
▁범죄	-10.8247
되었던	-10.8248
▁양도많고	-10.8249
▁참석	-10.8249
놨는데	-10.825
▁후기도	-10.8251
▁의무	-10.8254
로서는	-10.8257
갓	-10.8259
▁구매에요	-10.826
▁아우	-10.8261
한건	-10.8262
▁기포	-10.8265
▁분들도	-10.8265
▁통치	-10.8267
▁코코넛	-10.8267
▁시간은	-10.827
▁꾸덕	-10.8272
▁캐나다	-10.8273
▁의지	-10.8275
▁편의점	-10.8276
따라	-10.8278
▁재구매하고	-10.8279
▁쓰던게	-10.8281
▁안돼서	-10.8281
▁엠	-10.8283
▁구단	-10.8284
▁프리미엄	-10.8286
▁클럽	-10.8287
그레이	-10.8288
트가	-10.829
▁보다가	-10.8292
점에서	-10.8292
▁일어났	-10.8292
▁국민의	-10.8293
좋아용	-10.8293
▁피로	-10.8297
경우	-10.8297
자들의	-10.8299
▁필요없	-10.8299
▁구축	-10.83
깔끔	-10.83
▁일어난	-10.8303
▁반응이	-10.8304
추천합니다	-10.8308
▁가요	-10.8309
▁자리에서	-10.8309
▁분의	-10.8309
▁검색해서	-10.8311
▁신발이	-10.8313
요리	-10.8313
▁아닌듯	-10.8313
▁그렇네요	-10.8314
▁대통령이	-10.8314
▁떡국	-10.8316
▁자라	-10.8316
력은	-10.8317
▁앞두고	-10.8317
▁귀엽네요	-10.8317
▁남녀	-10.8318
낭	-10.8319
핵	-10.8322
▁광이	-10.8322
▁알아보고	-10.8322
많고	-10.8323
달라	-10.8326
▁단독으로	-10.8327
▁상큼한	-10.8328
▁스마일배송	-10.8328
지면서	-10.8329
지원	-10.8329
올라	-10.8333
구매합니다	-10.8333
큼	-10.8333
▁안맞아서	-10.8335
시오	-10.8336
▁대단히	-10.8337
▁문앞에	-10.8338
▁지인들	-10.8339
트는	-10.8341
▁원에	-10.8342
▁해보고	-10.8345
키로	-10.8347
▁사항	-10.8347
▁매우만족합니다	-10.8349
▁고구려	-10.8351
▁보았는데	-10.8352
▁아버지는	-10.8352
촉	-10.8355
▁부족해서	-10.8356
▁평범한	-10.8357
▁가량	-10.8358
▁제주	-10.8363
에만	-10.8366
▁딱좋아요	-10.8368
워요	-10.8368
일때	-10.8371
좋구	-10.8372
▁고집	-10.8372
소재	-10.8373
에게도	-10.8378
만으로도	-10.8378
▁구워먹	-10.8378
▁거듭	-10.8379
▁선명	-10.8381
▁화해	-10.8384
▁드라이버	-10.8386
▁향도좋고	-10.8387
콜	-10.8387
▁불가능	-10.8387
단이	-10.8388
▁흔들림	-10.8388
▁빠지고	-10.8389
▁탁월한	-10.839
▁산뜻한	-10.839
랜드	-10.8391
▁편은	-10.8394
틱	-10.8396
▁해체	-10.84
▁없어졌어요	-10.84
▁통제	-10.8401
▁만족했습니다	-10.8401
▁최상	-10.8403
▁무선충전	-10.8405
라이트	-10.8406
▁따위	-10.8408
▁지워	-10.8408
▁붙는	-10.8413
▁지명	-10.8413
얼굴	-10.8417
브라	-10.8418
▁근육	-10.8421
▁올랐	-10.8422
▁쫀쫀	-10.8423
▁측	-10.8423
▁집어	-10.8423
▁도는	-10.8423
▁피부타입건성지성복합성	-10.8424
▁주문했	-10.8424
병원	-10.8424
선거	-10.8425
▁보습력도	-10.8428
일반	-10.8429
개혁	-10.843
▁까닭	-10.8431
기준	-10.8432
▁조립은	-10.8432
▁식물	-10.8432
▁되어있어	-10.8433
▁지나도	-10.8434
▁회원	-10.8437
▁생일선물로	-10.8438
해져	-10.8438
▁별도로	-10.844
원으로	-10.844
▁기분좋게	-10.8442
▁저한텐	-10.8442
웨이	-10.8443
▁만족합니당	-10.8443
겼	-10.8444
▁띄	-10.8445
아침에	-10.8446
▁부위	-10.845
▁이후에	-10.8451
었는지	-10.8451
▁방향으로	-10.8451
▁속도도	-10.8455
▁발라봤는데	-10.8457
▁좋았으면	-10.8461
라이	-10.8461
▁학습	-10.8463
▁낮아	-10.8465
▁받아보고	-10.8469
▁안들어가	-10.8471
▁찝찝	-10.8471
▁문제로	-10.8472
▁검색하다가	-10.8474
▁지위	-10.8478
▁미군	-10.8479
▁상관	-10.8483
▁발색력	-10.8485
▁추천해줘서	-10.8487
▁노니	-10.8488
▁아주좋습니다	-10.8488
너무좋아요	-10.849
드립니다	-10.8491
▁신분	-10.8492
▁구하기	-10.8493
▁쓰는거라	-10.8493
▁유사	-10.8494
▁대가	-10.8494
▁눈치	-10.8496
욧	-10.8499
세계	-10.8501
▁발라서	-10.8501
▁말하고	-10.8502
▁모임	-10.8504
법이	-10.8504
만족해요	-10.8507
▁편의점에서	-10.8507
▁안좋아서	-10.8508
▁풍성	-10.8509
▁쓰기도	-10.851
색도	-10.8511
▁추가해서	-10.8515
▁빵빵	-10.8516
▁안남	-10.8517
▁편집	-10.8517
▁즐겨먹는	-10.8517
▁보리차	-10.8517
▁귀국	-10.8518
▁개정	-10.8519
▁구매해봤습니다	-10.852
▁비디오	-10.8522
▁정성	-10.8522
▁장군	-10.8523
▁제주도	-10.8525
없습니다	-10.8525
▁인수	-10.8526
할것같아요	-10.8527
면서도	-10.8529
▁먹기가	-10.8532
▁빨랐	-10.8532
마는	-10.8532
▁좋은데요	-10.8535
▁레이저	-10.8537
▁왔지만	-10.8538
▁글씨	-10.8544
▁스마일	-10.8546
▁노래를	-10.8547
▁번호	-10.8547
▁다니면서	-10.8551
▁아직까지는	-10.8552
▁배송되었습니다	-10.8553
▁저렴이	-10.8554
시켰	-10.8554
▁가볍	-10.8556
환경	-10.8556
▁얼룩	-10.856
▁주문한지	-10.8561
먹던	-10.8561
▁인기가	-10.8562
▁궁금	-10.8564
▁박스로	-10.8564
▁몽	-10.8565
▁자국이	-10.8566
▁대박입니다	-10.8568
▁착각	-10.8569
▁추천해서	-10.8569
▁죄송	-10.857
▁불편했는데	-10.8571
▁퇴근	-10.8571
▁질감이	-10.8572
▁퍼센트	-10.8574
▁위가	-10.8575
여요	-10.8577
▁염색약	-10.8578
▁어려울	-10.8579
▁구입을	-10.858
방울	-10.858
▁여행갈때	-10.8582
▁마주	-10.8584
▁뚜껑을	-10.8586
▁라떼	-10.8587
▁제품인	-10.8588
▁쓴지	-10.859
쿠폰	-10.8591
▁슬리퍼	-10.8591
▁수고	-10.8593
호는	-10.8596
▁플레이	-10.8597
▁달달하고	-10.86
▁생리	-10.8601
▁삿어요	-10.8601
▁엘지	-10.8602
▁원리	-10.8604
▁따뜻해요	-10.8606
▁심각한	-10.8606
▁의문	-10.8606
▁살껄	-10.8607
▁짜증	-10.8608
▁데리고	-10.8609
▁자본	-10.861
▁기다려	-10.8611
▁일주일에	-10.8612
▁친구한테	-10.8612
협회	-10.8614
▁넣어도	-10.8614
▁연결이	-10.8615
▁사람마다	-10.8615
▁행주	-10.8616
둑	-10.8616
▁긁	-10.8616
▁목소리	-10.8616
▁공화국	-10.8616
분들이	-10.8617
▁일치	-10.8618
▁생각한다	-10.862
▁스탠드	-10.8622
▁하나를	-10.8624
▁곰	-10.8629
▁구매한거	-10.8632
▁추천해	-10.8632
▁디지털	-10.8633
▁쫀쫀하고	-10.8633
겟죠	-10.8635
르는	-10.8636
▁곤	-10.8638
▁피부결이	-10.8638
라떼	-10.8643
▁비치	-10.8644
럴	-10.8644
▁양치	-10.8644
▁제품이고	-10.8645
하겠다고	-10.8645
▁출판	-10.8647
▁사전	-10.8654
으로서의	-10.8654
는데도	-10.8654
에게서	-10.8654
▁촉감이	-10.8654
▁보낼	-10.8656
▁무엇이	-10.8656
의원	-10.8656
예뻐요	-10.8656
보자	-10.8658
▁방식으로	-10.8659
▁지인에게	-10.8661
▁남의	-10.8661
▁배추	-10.8661
▁원액	-10.8663
▁약해요	-10.8665
▁고급진	-10.8665
자극	-10.8665
연구	-10.8666
휘	-10.8667
능력	-10.8667
▁피부결	-10.8668
▁남깁니다	-10.8668
▁흐름	-10.8668
▁맛도좋고	-10.867
▁단순한	-10.8673
▁문제에	-10.8677
▁보온	-10.8679
▁간의	-10.8679
▁일본에서	-10.8679
▁주기적으로	-10.8682
랬	-10.8682
▁주민	-10.8682
가면서	-10.8683
▁최고인듯	-10.8684
▁전망	-10.8685
▁지역에	-10.8686
개월	-10.8686
▁이기	-10.8687
▁이다	-10.8687
▁작은데	-10.8688
▁발행	-10.8689
▁비난	-10.869
▁터진	-10.8691
▁상당	-10.8694
▁드러나	-10.8695
보습	-10.8697
▁구매해야	-10.8701
▁참치	-10.8702
▁했을	-10.8702
▁않았던	-10.8702
해놓고	-10.8705
▁나가서	-10.8708
▁미터	-10.8709
▁나지만	-10.871
아이들	-10.8711
들어서	-10.8711
▁대량으로	-10.8711
당한	-10.8711
▁두껍게	-10.8714
▁믿어	-10.8714
▁삼다수	-10.8715
▁들어갔다	-10.8715
▁이용하겠습니다	-10.8717
▁네덜란드	-10.872
번호	-10.872
시아	-10.8723
▁쫄깃	-10.8724
▁폴란드	-10.873
소음	-10.8731
▁왕교자	-10.8733
▁들을	-10.8733
▁감사합니당	-10.8735
▁케이스에	-10.8735
▁잎	-10.8736
▁말하면	-10.8737
적은	-10.8737
▁구매하려고	-10.8737
▁밀려	-10.8739
▁먹일	-10.8739
지방	-10.8741
▁설치해	-10.8741
색상이	-10.8743
시설	-10.8745
색으로	-10.8746
▁계단	-10.8748
▁쌓	-10.8748
▁연락도	-10.8751
▁해군	-10.8752
맹	-10.8753
▁의존	-10.8757
간식으로	-10.8758
구매해서	-10.8758
▁그전에	-10.8758
▁강하고	-10.876
터라	-10.876
▁민주주의	-10.8761
▁아프리카	-10.8761
▁소형	-10.8762
▁찌개	-10.8763
▁개인적으로는	-10.8763
▁선물포장	-10.8766
넷	-10.8768
▁잘쓸	-10.8768
▁촉감도	-10.8768
▁때문인지	-10.877
▁벨	-10.877
계열	-10.877
답게	-10.8771
▁이곳	-10.8772
▁포함되어	-10.8776
▁피지오겔	-10.8777
▁직원들	-10.8779
빗	-10.8779
▁쵝오	-10.878
▁폭력	-10.8781
▁안사	-10.8782
▁여름에는	-10.8782
▁기회	-10.8784
▁금새	-10.8785
▁필수템	-10.8785
▁이름은	-10.8786
▁실버	-10.8786
▁있었으나	-10.8788
▁학원	-10.8788
▁발려서	-10.8792
▁양식	-10.8794
▁여유있게	-10.8797
▁가슴이	-10.8797
사랑	-10.88
▁강아지가	-10.88
▁시켜먹고	-10.88
▁비가	-10.8801
바람	-10.8805
줬어요	-10.8807
▁소장	-10.8807
▁이럴	-10.881
▁제출	-10.881
▁문제없	-10.881
▁크다	-10.8811
▁심하지	-10.8811
▁흔적	-10.8812
선의	-10.8815
필터	-10.8816
싶은	-10.8816
▁김대중	-10.8818
▁손바닥	-10.8819
▁물은	-10.8819
▁적혀있	-10.882
것같은	-10.8821
▁파스타	-10.8822
▁다르다	-10.8823
▁간다	-10.8826
▁이르	-10.8826
▁입어	-10.8826
▁복귀	-10.8826
▁속건조	-10.8827
▁여기는	-10.8827
▁함유	-10.8828
▁취급	-10.8828
및	-10.8828
뢰	-10.8832
▁빠르구	-10.8833
▁수십	-10.8833
컴	-10.8834
▁많습니다	-10.8834
잖	-10.8837
▁수립	-10.884
혔	-10.8841
▁배송빠르네요	-10.8844
것보단	-10.8845
▁쓰던제품	-10.8846
▁쿠션이	-10.8847
미스트	-10.8849
버렸네요	-10.885
▁묻어나	-10.885
▁항공	-10.8853
▁고기가	-10.8854
▁하는게	-10.8854
▁뭐라	-10.8854
음식	-10.8855
해주신	-10.8856
▁던져	-10.8858
▁세의	-10.8858
▁첫구매	-10.8866
▁사건이	-10.8866
안을	-10.8869
시킨다	-10.8871
▁물도	-10.8872
▁어울릴	-10.8873
▁깨끗해	-10.8874
▁한달에	-10.8876
▁생각으로	-10.8877
▁이처럼	-10.8877
이스	-10.8877
스타일	-10.8878
비용	-10.8879
▁할인해서	-10.888
▁텍스트	-10.888
▁가져가	-10.8881
▁취향	-10.8882
▁중독성	-10.8883
▁살균	-10.8884
제품으로	-10.8884
▁먹으니까	-10.8884
▁되어있	-10.8889
입고	-10.8889
▁끊어	-10.889
▁써보려고	-10.8896
▁중국산	-10.8897
▁칼국수	-10.8897
▁어울려요	-10.8897
▁들면	-10.8898
▁아내가	-10.8899
▁쌀국수	-10.8901
▁고급스러워	-10.8904
랍	-10.8905
▁드리려고	-10.8905
▁주민들	-10.891
싸고	-10.8912
▁짧아요	-10.8912
▁여섯	-10.8912
▁주셨어요	-10.8913
▁노란색	-10.8916
바이	-10.892
겼다	-10.892
▁좋다길래	-10.8922
▁기본적으로	-10.8925
▁듯이	-10.8926
▁좋아지고	-10.8928
비비	-10.893
▁달콤한	-10.893
▁뻑뻑한	-10.8932
▁캠핑	-10.8932
▁잘먹고있어요	-10.8935
울때	-10.8935
드러	-10.8936
하려구요	-10.8938
▁떼어	-10.8939
▁멀티	-10.8939
▁장이	-10.894
큐	-10.894
▁새제품	-10.8941
놨	-10.8943
는데요	-10.8947
▁폭신	-10.8947
▁블랙헤드	-10.8949
있을	-10.8949
▁엿	-10.8953
▁탄산이	-10.8953
▁장갑	-10.8954
▁아무도	-10.8958
▁대륙	-10.8959
간식	-10.896
비닐	-10.896
▁느낀	-10.896
▁한다면	-10.8962
▁바꿨어요	-10.8964
▁세로	-10.8964
▁좋을거같아요	-10.8964
▁주문하겠습니다	-10.8966
▁튀	-10.8967
▁많았	-10.8968
▁두어	-10.897
▁편리한	-10.8972
▁됐습니다	-10.8973
▁따갑	-10.8973
▁눈물	-10.8974
▁달지도	-10.8977
함과	-10.8978
▁날아가	-10.8981
▁연대	-10.8983
▁아이들과	-10.8984
먹다가	-10.8984
타이	-10.8985
▁깨끗이	-10.8986
▁맛이네요	-10.8986
와요	-10.8988
▁더블	-10.8989
▁러	-10.899
▁허술	-10.8994
▁들어있어	-10.8994
자에게	-10.8995
▁신경써서	-10.8999
▁써볼	-10.9
▁생물	-10.9003
어로	-10.9003
하였	-10.9004
▁되는것	-10.9006
▁사면서	-10.9007
▁샀었는데	-10.9007
▁입이	-10.9009
▁구매한것	-10.9013
▁순해요	-10.9014
▁발색은	-10.9014
▁나누	-10.9016
디자인도	-10.9019
▁재구매해요	-10.902
▁뻑뻑	-10.902
하시네요	-10.9026
부에	-10.9026
▁별로예요	-10.9028
▁옵니다	-10.9028
▁운명	-10.9032
▁싫어하는	-10.9033
▁줄어든	-10.9033
▁산거라	-10.9036
▁지나서	-10.9037
▁구입하였습니다	-10.904
▁있나	-10.9042
▁걸릴	-10.9043
▁웜톤	-10.9043
▁갈수록	-10.9044
먹음	-10.9044
▁정리가	-10.9045
▁풀리	-10.9047
▁다이어트에	-10.9048
▁크지만	-10.905
▁인구	-10.9052
▁있겠죠	-10.9053
▁경우에	-10.9054
▁그럼에도	-10.9058
▁갖는	-10.9059
▁병이	-10.9059
▁뾰루지가	-10.906
▁주소	-10.9061
▁힘들고	-10.9062
▁그리하여	-10.9062
긴하는데	-10.9065
색은	-10.9065
▁유엔	-10.9066
나오는	-10.9066
▁개성	-10.9067
다운	-10.9069
▁분야	-10.9071
▁주문한건데	-10.9072
▁잘되	-10.9075
▁보내주시	-10.9076
칙	-10.9077
▁한두	-10.9077
▁칭	-10.9079
▁받침대	-10.908
▁홍조	-10.9081
▁은은	-10.9081
웠다	-10.9083
▁자몽	-10.9084
▁멍	-10.9086
▁발라보니	-10.9087
▁차가	-10.9087
▁전보다	-10.9089
▁남편은	-10.9089
▁정도가	-10.909
▁성질	-10.909
▁없애	-10.9091
▁상하	-10.9091
▁있었네요	-10.9091
▁보냈	-10.9091
▁시키고	-10.9093
▁두껍	-10.9094
듭니다	-10.9098
▁다른곳	-10.9098
▁않으면서	-10.9099
▁저렴해	-10.91
▁급히	-10.9101
▁입맛에는	-10.9103
혁명	-10.9105
▁유전자	-10.9105
트를	-10.9106
▁후에도	-10.9107
드릴	-10.9108
▁것들	-10.9112
▁옥수수	-10.9112
▁느낌이고	-10.9114
▁명예	-10.9116
▁남쪽	-10.9116
▁북쪽	-10.9117
▁내고	-10.9117
▁끊김	-10.9119
▁쓴다	-10.9122
▁뿌리면	-10.9123
▁고른	-10.9123
받을	-10.9125
▁하셨	-10.9126
▁등받이	-10.913
▁오프라인보다	-10.913
▁진화	-10.9131
보통	-10.9131
▁아니어서	-10.9136
▁누룽지	-10.9136
▁민트	-10.9136
▁잘사용	-10.9136
▁바삭바삭	-10.9136
똥	-10.9137
▁체리	-10.9137
위가	-10.9138
히는	-10.9139
▁타임	-10.9143
▁번거롭	-10.9143
▁한병	-10.9144
▁한번만	-10.9144
▁비트	-10.9145
▁감탄	-10.9147
▁생길	-10.9148
▁제꺼	-10.9153
▁벤	-10.9153
▁튼튼하	-10.9153
▁허브	-10.9155
▁싱싱하고	-10.9157
▁알았어요	-10.9157
▁이용한	-10.9159
매일	-10.916
명의	-10.9162
▁배송완료	-10.9165
니아	-10.9166
주스	-10.9167
▁현지	-10.9168
젓	-10.917
▁쏘쏘	-10.917
▁먹을려고	-10.9171
▁선출	-10.9171
▁부자	-10.9171
▁의미가	-10.9173
▁그립감이	-10.9175
▁농업	-10.9176
▁없죠	-10.9176
▁소분	-10.9176
드네요	-10.9177
음이	-10.9179
▁수평	-10.9182
▁지문	-10.9183
▁다먹으면	-10.9185
▁반발	-10.9186
▁자금	-10.9187
었음	-10.9187
단점	-10.9187
▁특가	-10.9188
▁개국	-10.9189
▁구속	-10.919
▁요인	-10.919
▁통에	-10.9192
받으	-10.9193
▁골을	-10.9193
▁오래쓸	-10.9194
묵	-10.9194
▁짜지	-10.9194
꺼에요	-10.9195
▁오리	-10.9196
▁터져	-10.9196
▁박스를	-10.9196
▁해보니	-10.9197
재료	-10.9199
▁음성	-10.92
▁대사	-10.92
▁넘어서	-10.92
▁냉면	-10.9201
▁귀찮아	-10.9204
▁이리저리	-10.9205
▁허접	-10.9207
스럽고	-10.9207
▁이라는	-10.9208
되었네요	-10.9208
▁자본주의	-10.9209
▁지역에서	-10.9209
끌	-10.9212
▁이들의	-10.9214
▁정규	-10.9219
▁없는듯	-10.9222
거라고	-10.9222
▁집들이	-10.9223
▁다좋은데	-10.9223
▁편리해서	-10.9223
▁나타났다	-10.9224
▁쓰기에는	-10.9224
▁거절	-10.9228
▁망고	-10.9229
▁날아	-10.9229
제품도	-10.9231
▁놀랐네요	-10.9231
▁배송빨라서	-10.9231
▁회사에	-10.9233
▁획득	-10.9233
▁인간이	-10.9235
▁푸른	-10.9235
▁작동도	-10.9235
▁헛	-10.9236
▁덧	-10.9237
▁붙어있	-10.9237
▁친구에게	-10.9243
▁누르	-10.9246
▁괜찮다	-10.9248
옵니다	-10.9249
▁익히	-10.9251
▁쏘	-10.9253
▁위생	-10.9254
에서부터	-10.9255
▁예비	-10.9257
▁사는게	-10.926
다음날	-10.9262
▁빨간색	-10.9264
좋아해요	-10.9266
▁구입했	-10.9269
챙겨	-10.9271
▁만주	-10.9273
단을	-10.9274
우면	-10.9274
▁느끼고	-10.9276
▁달지않고	-10.9277
량을	-10.9277
▁아래로	-10.9278
▁한번더	-10.9278
않고	-10.9278
▁순위	-10.928
▁여드름이	-10.928
▁보았	-10.928
▁방치	-10.9282
▁하는거	-10.9282
▁타제품	-10.9283
해주셨어요	-10.9284
▁든든	-10.9284
▁상세	-10.9285
▁가리	-10.9288
▁답답	-10.9289
▁이내	-10.9291
▁들지	-10.9292
거든	-10.9297
▁보정	-10.93
통에	-10.9301
▁환절기	-10.9301
▁아닌지	-10.9301
▁윈도우	-10.9304
지나	-10.9305
▁키친타올	-10.9306
만은	-10.9306
베이지	-10.9309
▁비행기	-10.9313
▁띠	-10.9316
▁모르게	-10.9317
▁들려	-10.9318
▁헐렁	-10.932
▁전력	-10.9321
▁주스	-10.9322
▁병원에서	-10.9322
과학	-10.9324
▁산뜻	-10.9324
▁사이즈에	-10.9325
보관	-10.9327
덕분에	-10.9327
쟁이	-10.9328
▁영토	-10.9331
학자	-10.9331
▁쿠폰으로	-10.9332
▁하기도	-10.9332
▁임시	-10.9333
버렸어요	-10.9336
▁고소	-10.9339
뇌	-10.9339
인들은	-10.9339
편은	-10.934
▁알려주	-10.9341
▁잘맞고	-10.9341
▁혜	-10.9341
▁갈리	-10.9346
▁환기	-10.9346
▁제외한	-10.9348
▁구간	-10.9348
▁손쉽게	-10.9349
▁말한	-10.935
할땐	-10.9351
▁써보지	-10.9353
▁잠이	-10.9354
▁오늘은	-10.9354
▁꾸준하게	-10.9357
비싼	-10.9357
▁주택	-10.9361
맘에들어요	-10.9362
▁특성상	-10.9362
▁섞	-10.9363
▁보급	-10.9364
▁대기업	-10.9364
▁생각할	-10.9365
▁대처	-10.9366
했답니다	-10.9366
▁사용하여	-10.9366
두면	-10.9367
▁들여	-10.937
켓	-10.9371
▁손등에	-10.9372
▁구입해요	-10.9373
▁새롭게	-10.9373
▁상쾌	-10.9374
▁지상	-10.9374
▁힘든데	-10.9375
▁편성	-10.9375
▁공포	-10.9377
때가	-10.9379
▁채택	-10.9379
▁반짝	-10.938
▁증명	-10.9381
▁느껴지지	-10.9381
▁제정	-10.9381
▁녀석	-10.9382
▁이니스프리	-10.9383
▁홈페이지	-10.9384
하긴한데	-10.9384
민족	-10.939
▁떨어져요	-10.939
▁쓰던거에요	-10.9391
▁질서	-10.9393
▁영국의	-10.9393
몇	-10.9393
▁보시면	-10.9395
▁그런게	-10.9397
행위	-10.9397
▁냄비	-10.9397
상태로	-10.94
광고	-10.94
▁올게요	-10.94
▁여긴	-10.9401
▁무드등	-10.9401
있구요	-10.9404
▁팁	-10.9405
▁현관	-10.9406
▁왠만한	-10.9407
었을때	-10.9407
▁양반	-10.9412
▁새벽에	-10.9412
쪽은	-10.9413
▁피부타입	-10.9416
▁써봐서	-10.9417
▁있는데요	-10.9421
▁뽀송	-10.9422
▁사용했었는데	-10.9424
▁최악	-10.9424
먹었	-10.9425
유지	-10.9425
▁낸	-10.9426
▁로즈	-10.9427
▁질리	-10.943
▁곳을	-10.943
플러스	-10.9432
▁지워지	-10.9434
▁예상보다	-10.9434
▁공정	-10.9434
▁활	-10.9434
▁분위기가	-10.9435
▁시작하였다	-10.9435
▁구매하려구요	-10.9436
▁현재까지	-10.9436
밴드	-10.9436
▁불쾌	-10.9437
▁사야겠어요	-10.9439
▁탄생	-10.9441
베이	-10.9442
▁반짝반짝	-10.9442
▁오직	-10.9442
싶었는데	-10.9442
▁개방	-10.9443
▁기호	-10.9444
▁꺼내서	-10.9444
▁용량은	-10.9445
▁문명	-10.9446
▁역쉬	-10.9446
▁두고두고	-10.9447
▁곱	-10.9448
▁써보는	-10.9449
흡수	-10.945
내기	-10.9452
▁못했어요	-10.9452
▁기원전	-10.9453
▁발랐	-10.9455
▁들어와	-10.9455
▁수학	-10.9455
▁피부에도	-10.9456
먹은	-10.9456
▁먹는거라	-10.9456
놓는	-10.9456
▁사람들을	-10.9456
▁붙일	-10.9456
▁통통	-10.9457
줌	-10.9457
▁분사력	-10.9457
▁투입	-10.9459
▁서서	-10.946
▁규칙	-10.9463
▁조립하기	-10.9465
▁것같아요	-10.9467
▁습도	-10.9467
▁변형	-10.9469
▁있길래	-10.9469
▁무한	-10.9469
▁담백하고	-10.947
▁기본적인	-10.947
렵니다	-10.9471
▁생각했다	-10.9472
▁일정한	-10.9473
▁오프라인에서	-10.9474
▁구매하러	-10.9475
집이	-10.9477
▁당선	-10.9477
▁왁스	-10.9477
▁봉투	-10.9477
▁형사	-10.9484
퇴	-10.9484
▁공항	-10.9484
색을	-10.9485
비는	-10.9485
▁되구요	-10.9487
지속력	-10.9488
▁불편하지	-10.9489
▁밀착	-10.9491
▁딱이예요	-10.9494
▁마구	-10.9494
▁악건성	-10.9495
▁살때	-10.9495
▁시켜먹	-10.9496
▁난감	-10.9496
▁메모리	-10.9497
거려요	-10.9499
텔	-10.9499
▁미샤	-10.9499
▁시위	-10.9503
▁날개	-10.9504
▁유학	-10.9505
▁부엌	-10.9506
주를	-10.9508
졸	-10.9508
▁아깝	-10.951
▁같은거	-10.9511
▁택배기사님	-10.9513
▁줄었어요	-10.9513
▁여태	-10.9515
▁스프	-10.9517
었으나	-10.9518
▁덤	-10.9518
▁말랑	-10.9521
▁센터	-10.9523
▁배송까지	-10.9524
▁은근히	-10.9524
▁바이	-10.9524
▁모드	-10.9526
신고	-10.9527
▁전까지	-10.9529
▁묶	-10.9531
▁사용할게요	-10.9533
▁보습도	-10.9534
▁소재가	-10.9536
▁변화는	-10.9537
▁썼다	-10.954
므로	-10.9542
▁빙	-10.9542
▁존재한다	-10.9543
▁있길	-10.9543
꺼는	-10.9544
▁중에는	-10.9544
▁끓여먹	-10.9544
▁개로	-10.9546
램	-10.9546
만큼은	-10.9546
▁프린트	-10.9547
▁사지	-10.9548
로스	-10.9548
받았다	-10.9549
▁사용감은	-10.955
좋아하는	-10.9551
▁분들에게	-10.9552
▁가져	-10.9553
▁앞머리	-10.9554
▁피부는	-10.9555
▁찌그러져서	-10.9555
▁안쪽에	-10.9555
▁보았습니다	-10.9556
▁누나	-10.9557
▁속은	-10.9557
▁예산	-10.9557
높이	-10.9559
졌고	-10.9559
잘못	-10.956
▁청소년	-10.9561
▁있었기	-10.9561
▁톡	-10.9561
▁촌	-10.9567
▁설명서가	-10.9568
▁빨대	-10.9568
함은	-10.9569
거림	-10.9569
동이	-10.9569
▁실수로	-10.957
이다보니	-10.9572
▁재단	-10.9573
하였던	-10.9573
▁챙겨주시고	-10.9574
제형	-10.9574
▁직구	-10.9577
▁랑	-10.9578
▁세상을	-10.9579
마니	-10.9579
▁변색	-10.958
▁이용할게요	-10.958
직을	-10.958
▁써봤	-10.9582
려니	-10.9582
▁다른곳에서	-10.9584
▁잘때	-10.9585
▁타자	-10.9586
기사님	-10.9586
▁올랐다	-10.9587
▁맛이라	-10.9592
▁위기	-10.9594
▁보내주셨	-10.9596
시원	-10.9596
▁확실하게	-10.9597
뼈	-10.9597
▁안주	-10.9597
심이	-10.9599
▁책임을	-10.9601
▁열이	-10.9602
숭	-10.9603
▁쪼금	-10.9604
개선	-10.9605
▁전에도	-10.9605
▁곳보다	-10.9606
려고요	-10.9606
▁전시	-10.9608
이드	-10.9609
▁소문대로	-10.9611
되자	-10.9611
▁이제품을	-10.9612
▁다름	-10.9612
벅	-10.9614
사이즈가	-10.9614
▁치마	-10.9614
▁가르	-10.9615
거래	-10.9615
▁같아용	-10.9616
▁배송빠름	-10.9616
▁이해가	-10.9619
▁기회를	-10.9619
▁휴대용으로	-10.962
▁엄마랑	-10.9621
▁가격대가	-10.9622
▁탄탄	-10.9626
▁사용전인데	-10.9629
▁동경	-10.9631
▁안된다	-10.9632
▁왕국	-10.9632
▁밀크티	-10.9632
단의	-10.9632
▁뺐어요	-10.9633
▁번지	-10.9636
▁좋겠다	-10.964
▁타이트	-10.964
▁결론	-10.9641
▁한국에서	-10.9641
▁남자가	-10.9642
만들어	-10.9645
▁먹으려	-10.9646
▁한정	-10.9647
▁찜	-10.9647
▁햇빛	-10.9647
▁부르는	-10.9648
▁막아	-10.9648
▁붕괴	-10.9649
▁세는	-10.9649
▁싶지	-10.9651
▁등에서	-10.9651
▁도와	-10.9652
▁언니가	-10.9653
▁되지만	-10.9653
▁도망	-10.9654
▁택배로	-10.9656
아래	-10.9657
어를	-10.966
▁거칠	-10.9661
▁겨	-10.9661
▁빠졌	-10.9663
▁평범	-10.9664
▁내지	-10.9666
▁있겠	-10.9666
▁깨져	-10.9666
혼자	-10.9669
▁입어도	-10.9669
▁잘모르겠어요	-10.967
▁사용한다	-10.9671
났어요	-10.9671
▁고장이	-10.9673
▁상자가	-10.9673
▁느낌인데	-10.9673
▁기록했다	-10.9674
▁탈출	-10.9677
▁가을에	-10.9677
▁우유를	-10.9677
▁아이스박스	-10.9678
▁늦어서	-10.9679
습니까	-10.9679
▁때의	-10.968
▁커버도	-10.9682
▁찾았는데	-10.9684
되었으나	-10.9684
▁놓을	-10.9685
▁베이스로	-10.9686
▁증정	-10.9687
▁옷장	-10.9687
▁정말정말	-10.969
▁예수	-10.9691
▁발라주고	-10.9691
통신	-10.9691
형을	-10.9692
▁스크래치	-10.9692
해용	-10.9692
조선	-10.9693
▁추정	-10.9695
▁넓게	-10.9696
▁한때	-10.9697
▁운동할때	-10.9697
▁모터	-10.9697
댁	-10.9699
▁단순히	-10.9701
▁클릭	-10.9701
▁걸렸네요	-10.9704
▁드리고	-10.9705
용이	-10.9705
▁부른다	-10.9706
놨어요	-10.9706
▁선수들	-10.9707
▁훌륭	-10.9708
▁보상	-10.9708
▁염증	-10.9709
냄새도	-10.971
▁칼슘	-10.971
드렸더니	-10.9711
세여	-10.9713
▁진해요	-10.9713
친구	-10.9714
일까요	-10.9715
▁청와대	-10.9721
나게	-10.9722
▁거대한	-10.9723
되어있어서	-10.9724
▁사주	-10.9724
비싸	-10.9727
▁약산성	-10.9729
▁수술	-10.973
▁후에는	-10.973
▁빚	-10.973
괜찮아요	-10.9731
▁타이	-10.9733
▁문질러	-10.9733
▁풀커버	-10.9735
▁맛있었습니다	-10.9738
▁년대에	-10.9739
경기	-10.9742
▁샴푸를	-10.9743
않아요	-10.9744
▁설치기사님	-10.9744
▁왜냐하면	-10.9744
▁올려놓	-10.9746
▁그러고	-10.975
▁늘쓰던	-10.9751
▁기대해	-10.9754
▁그런대로	-10.9756
▁씹는	-10.9758
▁남았	-10.976
이던	-10.9761
오자마자	-10.9766
▁흡수력도	-10.9767
▁황금	-10.977
▁보존	-10.977
▁활용도가	-10.9771
▁더더욱	-10.9771
던가	-10.9774
야지	-10.9774
한테는	-10.9775
▁봤습니다	-10.9776
렀	-10.9777
▁환상	-10.9778
▁감사했습니다	-10.9778
▁않는다는	-10.978
▁손잡이가	-10.9781
▁그와	-10.9783
▁대통령은	-10.9783
▁알수	-10.9783
▁팔아	-10.9785
▁드시는	-10.9785
▁안쓰고	-10.9788
▁글쎄요	-10.9788
▁될거	-10.979
아프	-10.9791
▁당시의	-10.9791
내용	-10.9791
▁수리	-10.9793
▁조치	-10.9794
▁화면보다	-10.9796
▁프레	-10.9797
▁있으니까	-10.98
▁현미	-10.98
진않	-10.9801
▁잡아주고	-10.9806
▁증상	-10.9807
▁관측	-10.9808
셨어요	-10.9809
▁구매함	-10.9809
즐	-10.981
▁안들	-10.981
▁자가	-10.981
▁싸요	-10.981
▁몸무게	-10.9811
▁실용성	-10.9812
전이라	-10.9812
톡	-10.9813
▁괜찮은거같아요	-10.9814
▁간편해요	-10.9814
만한게	-10.9815
▁포장되서	-10.9817
▁최저가로	-10.9818
부장	-10.9819
수준	-10.9819
▁발라주	-10.982
▁서구	-10.9821
▁쿨	-10.9822
되었지만	-10.9822
▁인류	-10.9823
▁방해	-10.9823
▁비싸고	-10.9825
▁대선	-10.9826
시기	-10.9828
셔요	-10.983
▁비로소	-10.983
굳	-10.983
▁아니예요	-10.9831
▁자네	-10.9832
세안	-10.9833
▁조그만	-10.9835
▁객	-10.9836
▁상품과	-10.9839
▁확산	-10.984
▁방안	-10.984
▁노예	-10.9842
▁평양	-10.9845
▁찾은	-10.9845
▁이루어진	-10.9846
▁사라지고	-10.9849
▁대규모	-10.9849
▁최소한	-10.9849
▁있죠	-10.985
사이트	-10.9851
▁튀김	-10.9853
국이	-10.9855
▁관계가	-10.9855
▁있기를	-10.9856
▁장애	-10.9858
▁행사해서	-10.9859
▁할듯	-10.986
▁역사적	-10.9861
캡	-10.9862
지니	-10.9862
▁다를	-10.9863
▁누르면	-10.9863
▁해주세요	-10.9864
▁좋으니	-10.9866
음을	-10.9866
▁접착력이	-10.9866
▁들뜸	-10.9867
▁취임	-10.9867
▁시작해서	-10.9867
▁자취	-10.9868
▁꼬리	-10.9868
멀	-10.9869
▁아이디어	-10.9872
▁살려	-10.9872
▁사이즈라	-10.9874
▁봅시다	-10.9879
▁깎	-10.9879
▁안나는	-10.9881
▁겹	-10.9881
▁셀프	-10.9881
국민	-10.9884
늦	-10.9887
파는	-10.9887
▁별점	-10.9888
▁기대되네요	-10.9892
▁신체	-10.9893
▁저렴한가격	-10.9893
박스에	-10.9895
소가	-10.9895
▁주문했더니	-10.9896
보지	-10.9897
▁비슷해요	-10.9897
그대로	-10.9898
▁인공	-10.9898
어가	-10.9898
▁정식	-10.9901
▁구매하였는데	-10.9906
▁밝고	-10.9909
▁좋아하	-10.9909
▁구성된	-10.9909
▁같긴	-10.9912
었으며	-10.9912
▁속의	-10.9912
▁조용	-10.9913
▁안되요	-10.9913
시켜서	-10.9914
▁투수	-10.9914
픈	-10.9915
▁스크럽	-10.9915
▁이용해서	-10.9916
▁겉에	-10.9916
▁빠질	-10.9916
▁대통령의	-10.9918
사에서	-10.9921
▁맞이	-10.9921
놓으니	-10.9922
▁좋은지는	-10.9922
▁센서	-10.9922
세럼	-10.9924
▁난다	-10.9924
▁불편하	-10.9926
날짜	-10.9926
▁건조함	-10.9927
▁하던데	-10.9927
▁함량이	-10.9927
▁들어오는	-10.993
▁아무거나	-10.993
▁만명	-10.9931
▁정말좋아요	-10.9931
▁쉽	-10.9932
▁이적	-10.9932
▁발을	-10.9932
킬	-10.9934
▁몰려	-10.9935
▁하십니다	-10.9937
▁고급져	-10.9937
▁어마어마	-10.9937
▁어플	-10.994
▁토론	-10.994
그릇	-10.9941
▁안해서	-10.9941
▁퍽퍽	-10.9941
▁끌고	-10.9941
▁버리는	-10.9943
화의	-10.9944
▁뿌	-10.9947
▁단계로	-10.9954
▁시켜먹어요	-10.9954
▁부어	-10.9954
▁소분해서	-10.9959
▁한팩	-10.9959
▁견해	-10.9961
보입니다	-10.9962
▁프로젝트	-10.9963
▁독특한	-10.9965
▁호박	-10.9965
▁버린	-10.9966
세포	-10.9966
▁빨리오고	-10.9967
▁넣은	-10.9968
▁이상은	-10.9971
▁렌즈	-10.9971
▁세정	-10.9972
이므로	-10.9973
▁경향이	-10.9976
▁바꾼	-10.9978
스티	-10.998
▁복합	-10.9982
실에서	-10.9983
▁기능성	-10.9984
버렸	-10.9985
▁진작에	-10.9988
▁매우만족	-10.9988
▁인증	-10.9988
어묵	-10.9989
▁바쁘	-10.999
왓	-10.9992
나와	-10.9993
▁만일	-10.9995
▁지점	-10.9995
과정에서	-10.9996
▁끓이	-10.9996
▁드러내	-10.9996
▁황당	-10.9997
▁접어	-10.9997
▁온라인으로	-10.9998
▁스프링	-10.9998
▁한국인	-10.9999
▁상당한	-11
봤더니	-11
▁시가	-11.0001
▁잇는	-11.0002
▁외에는	-11.0005
쩍	-11.0006
▁하겠다	-11.0007
시트	-11.0008
▁헬	-11.0009
▁흡수력	-11.0009
▁든다	-11.0013
▁더구나	-11.0016
▁했으면	-11.0017
하고있습니다	-11.0019
▁겟	-11.0019
▁밀착력	-11.0021
▁잘라	-11.0023
▁고추	-11.0025
▁애니메이션	-11.0026
▁생존	-11.0029
▁구매햇어요	-11.0029
주가	-11.0031
▁시작했는데	-11.0032
▁소녀	-11.0032
▁체포	-11.0032
▁껍질	-11.0034
▁번씩	-11.0034
▁노동자	-11.0035
▁다릅니다	-11.0036
우고	-11.0037
촉촉하고	-11.0038
▁겨울이	-11.0038
▁조금이라도	-11.0039
▁헤라	-11.004
웃	-11.0043
▁강제	-11.0044
는대	-11.0047
▁뺀	-11.0047
▁흔들리	-11.0049
▁피지가	-11.0049
▁몇통째	-11.005
▁굵은	-11.0053
▁이런건	-11.0055
▁사고싶	-11.0056
원에	-11.0057
▁신뢰	-11.0058
생산	-11.006
▁누락	-11.006
호를	-11.0061
▁몹시	-11.0063
▁미친	-11.0065
화이트	-11.0065
▁때문	-11.0066
둥이	-11.0068
▁자기의	-11.0068
▁기모	-11.0073
▁북부	-11.0073
▁챙기	-11.0074
▁깔끔해	-11.0076
▁팥	-11.0076
▁만두가	-11.0076
▁계급	-11.0077
▁자세한	-11.0077
▁남편도	-11.0082
▁시리얼	-11.0084
시가	-11.0084
▁묶음	-11.0085
▁저녁으로	-11.0085
▁지도자	-11.0087
▁쓸때	-11.0088
▁좋았네요	-11.0092
완료	-11.0092
▁편안한	-11.0093
▁식당	-11.0095
▁쿨톤	-11.0097
▁영향력	-11.0099
순이	-11.0099
▁당기는	-11.01
▁아쉽긴	-11.01
▁바세린	-11.01
차이	-11.0101
▁잘라서	-11.0102
▁트러블은	-11.0103
▁진보	-11.0107
세척	-11.0111
앞으로	-11.0113
▁리치	-11.0118
▁전선	-11.0119
▁먹구	-11.0121
▁개인의	-11.0122
친절	-11.0123
▁보여주	-11.0124
▁열차	-11.0125
▁거기다	-11.0125
▁잘왔습니다	-11.0125
▁찜찜	-11.0126
얼굴에	-11.0127
▁공기가	-11.0128
▁매직	-11.0129
▁아니라고	-11.0129
▁농민	-11.0131
▁신화	-11.0132
▁괜찬	-11.0138
▁넉넉하니	-11.0138
▁절약	-11.0138
▁방울	-11.0139
▁썬	-11.014
▁뒤집	-11.0141
저렴하고	-11.0141
국물	-11.0143
▁사랑을	-11.0143
쓰다	-11.0144
샵	-11.0145
▁흡수력이	-11.0146
▁년의	-11.0147
▁단위	-11.0147
긴하네요	-11.0148
▁구매했었는데	-11.0148
▁기울	-11.0148
▁작업을	-11.015
▁변비가	-11.0151
▁재품	-11.0153
▁편히	-11.0154
모를	-11.0155
▁못하게	-11.016
▁옷도	-11.0161
▁설명도	-11.0164
▁최고인	-11.0165
을까요	-11.0165
판을	-11.0165
▁싼거	-11.0166
은데	-11.0166
사용하고	-11.0168
인것같아요	-11.017
▁스위치	-11.0171
연합	-11.0171
▁베리	-11.0172
▁기원	-11.0173
▁구비해	-11.0173
바른	-11.0176
▁부드러움	-11.0176
▁신발은	-11.0177
▁포장지	-11.0179
력도	-11.0179
▁사도	-11.018
맛나요	-11.0181
궈	-11.0181
▁하얀색	-11.0184
▁만족스럽	-11.0186
▁식감도	-11.0187
▁후기들	-11.0187
▁옹	-11.0188
제의	-11.0189
▁너무나도	-11.0195
▁발언	-11.0195
▁덮어	-11.0196
▁단어가	-11.0196
▁말하자면	-11.0197
▁일대	-11.0199
▁방법은	-11.02
▁논문	-11.0201
▁다행	-11.0202
발이	-11.0202
등이	-11.0203
▁이승만	-11.0203
▁먹어보는데	-11.0206
▁라이	-11.0206
같아서	-11.021
▁나아요	-11.0211
▁챙겨먹고	-11.0211
넉넉	-11.0212
▁이뻐	-11.0213
▁잉글랜드	-11.0214
조직	-11.0214
하고있어요	-11.0216
▁대박나세요	-11.0218
▁오일을	-11.0221
▁순서	-11.0222
▁해소	-11.0224
▁먹던거	-11.0227
홈	-11.0227
▁비싼데	-11.0227
튀	-11.0229
▁쏟아	-11.023
▁구매후기	-11.0231
▁발휘	-11.0235
▁숲	-11.0237
▁원래는	-11.024
▁해주시	-11.0242
▁피부자극	-11.0242
▁덩어리	-11.0242
▁기구	-11.0243
부위	-11.0248
다음	-11.0248
▁스펀지	-11.025
▁클래식	-11.0251
먹고있어요	-11.0252
▁불편할	-11.0252
▁지성피부	-11.0253
▁홈쇼핑에서	-11.0253
▁재구매하는	-11.0254
향기	-11.0255
▁띄게	-11.0255
넘게	-11.0256
▁산뜻하고	-11.0256
▁본질	-11.0257
사람들	-11.0259
시작	-11.0259
▁풍부한	-11.026
▁양념이	-11.026
▁맛있는거	-11.0261
리그	-11.0261
▁아니구요	-11.0264
▁저기	-11.0264
▁구매했는데요	-11.0265
일은	-11.0265
▁인식이	-11.0265
▁제외	-11.0265
▁온갖	-11.0265
놔도	-11.0266
▁적립	-11.0266
▁같다는	-11.0266
▁훈	-11.0267
에다가	-11.027
▁과장	-11.027
각질	-11.0273
▁입장을	-11.0274
▁로켓	-11.0274
▁맛있었	-11.0274
▁세가지	-11.0276
▁발효	-11.0277
▁정도면	-11.0279
주머니	-11.0279
▁국가의	-11.0279
▁놓여	-11.028
▁달라진	-11.0281
▁중의	-11.0281
▁작성시	-11.0282
▁커피는	-11.0285
▁독일의	-11.0286
▁최강	-11.0287
형태	-11.0287
▁조화	-11.0288
됬	-11.0288
▁마십니다	-11.0293
▁쉬워서	-11.0293
▁만족스러워서	-11.0293
▁생각됩니다	-11.0295
겄	-11.0296
▁지나지	-11.0296
▁벗겨지	-11.0297
주문해서	-11.0297
▁적지	-11.0297
▁정말로	-11.0301
▁기름기가	-11.0303
▁고민없이	-11.0305
▁영향	-11.0306
▁현재는	-11.0307
▁죽을	-11.0307
▁플러스	-11.0307
▁보내고	-11.0307
곱	-11.0308
렷	-11.0309
▁씻겨	-11.0309
▁좁아서	-11.0311
▁알러지	-11.0315
▁디테일	-11.0315
▁원형	-11.0315
즘	-11.0318
▁여명	-11.0324
▁옷에	-11.0325
인지는	-11.0325
▁결성	-11.0325
▁내에서	-11.0326
▁문구	-11.0326
▁달랑	-11.0327
▁구체적인	-11.0328
식은	-11.0331
▁공동체	-11.0331
솜	-11.0332
입을	-11.0334
▁알려졌다	-11.0334
드려	-11.0337
▁묻혀	-11.0337
꺼같아요	-11.0338
▁갖게	-11.034
▁먹어보려고	-11.034
▁일자	-11.0341
▁괜	-11.0341
안나고	-11.0342
낙	-11.0346
유산균	-11.0346
▁비벼	-11.035
용이라	-11.0351
▁편하구요	-11.0353
▁줄줄	-11.0355
▁사물	-11.0355
▁채로	-11.0356
▁하여금	-11.0359
▁보는데	-11.036
▁쟁	-11.0361
▁중학교	-11.0361
으실	-11.0364
드라구요	-11.0366
▁홍콩	-11.0368
▁처지	-11.0369
왔구요	-11.0369
▁무광	-11.037
▁느리	-11.0371
▁짙은	-11.0374
파이	-11.0374
▁어둠	-11.0374
▁사랑하는	-11.0374
▁우러나	-11.0375
자국	-11.0376
▁설사	-11.0378
▁배출	-11.0378
▁건성인	-11.0379
▁올인원	-11.0379
▁실력	-11.0381
설탕	-11.0382
▁보라색	-11.0386
▁유형	-11.039
▁활용도	-11.0392
▁소프트	-11.0392
▁잡는	-11.0392
인들의	-11.0393
▁넣었	-11.0394
가면	-11.0394
▁사라졌어요	-11.0395
▁보냈다	-11.0397
▁우와	-11.0397
▁모르겠다	-11.0397
▁침대에	-11.04
향을	-11.0401
▁샀다	-11.0401
▁변호사	-11.0405
입니까	-11.0407
▁했다고	-11.0407
▁들어가요	-11.0407
하라는	-11.0408
▁오래가요	-11.0409
겟어요	-11.041
▁외에도	-11.041
▁런던	-11.0412
▁친절하셔서	-11.0413
▁성의	-11.0414
▁판결	-11.0415
▁구입해봤어요	-11.0416
▁비싸긴	-11.0416
설명	-11.0417
▁상황을	-11.0417
색상도	-11.0418
▁야당	-11.042
▁혼합	-11.0421
▁다양해서	-11.0422
사람이	-11.0424
▁단추	-11.0424
▁불이	-11.0425
▁화면이	-11.0425
▁얹어	-11.0425
▁잘산거같아요	-11.0427
▁고문	-11.0428
▁아닌거	-11.0429
▁공간을	-11.0429
먼지	-11.0432
▁올라왔	-11.0433
▁없는게	-11.0434
▁결과는	-11.0434
있다고	-11.0435
▁뜨고	-11.0435
▁계획을	-11.0435
오면	-11.0435
▁써보지는	-11.0437
▁쓸거	-11.0439
버리는	-11.0444
먹어보고	-11.0447
덤	-11.0447
▁끝나고	-11.0448
소설	-11.0449
▁들리	-11.0451
▁포도	-11.0451
▁미용실	-11.0453
춤	-11.0453
▁그들	-11.0457
학생	-11.0459
▁보내는	-11.0459
▁흠집	-11.0459
▁사다가	-11.0461
▁건조해져서	-11.0462
올려	-11.0462
석이	-11.0462
▁네가	-11.0462
▁얼려	-11.0463
▁같아여	-11.0463
▁투쟁	-11.0464
좋을	-11.0467
구매했습니다	-11.0468
▁중학생	-11.0469
▁사먹고	-11.0469
▁뒤를	-11.0474
▁상황에	-11.0474
받았는데	-11.0474
▁화이트닝	-11.0478
▁정품이	-11.048
▁앤	-11.048
▁양면	-11.0481
선은	-11.0481
▁한두번	-11.0486
미니	-11.0486
▁원자	-11.0486
▁시중에서	-11.049
▁발표했다	-11.0492
▁소포장	-11.0494
▁이듬해	-11.0496
▁사용감도	-11.0496
▁품절이	-11.0496
▁필요하다고	-11.0496
실에	-11.0499
▁인제	-11.05
▁나왔어요	-11.0502
▁양조절	-11.0502
건성	-11.0502
▁빅쏘	-11.0502
▁찬바람	-11.0503
▁웬	-11.0503
▁만족스러웠습니다	-11.0504
▁주문하는데	-11.0505
▁먼지도	-11.0507
▁자원	-11.0507
지성	-11.0508
▁왓	-11.0508
음악	-11.0508
▁얻은	-11.0509
▁블랙박스	-11.0509
화는	-11.0509
▁회수될	-11.051
▁앱	-11.0511
▁낫네요	-11.0512
놀이	-11.0514
▁필링	-11.0516
▁대상이	-11.0516
▁친정엄마	-11.0517
▁땅콩	-11.0517
▁구입하여	-11.0518
▁뭔	-11.0519
▁보려고	-11.0522
▁겁	-11.0522
▁버려	-11.0526
느껴	-11.0528
그려	-11.0528
▁공유	-11.0531
▁없어지고	-11.0536
▁혀	-11.0537
한국	-11.0537
▁지는	-11.0538
스키	-11.0539
▁걸음	-11.054
▁파란색	-11.054
▁괜찮구요	-11.0541
동생	-11.0543
부분도	-11.0544
보려고	-11.0546
요청	-11.0547
인터넷	-11.0548
▁셋째	-11.0549
깔끔하고	-11.0549
▁타입이라	-11.0552
▁기대이상	-11.0556
▁두드려	-11.0557
▁추구	-11.0558
▁깨끗	-11.0558
▁불어	-11.0559
▁줍니다	-11.0563
▁메인	-11.0564
▁픽	-11.0565
던거	-11.0566
법은	-11.0566
가족	-11.0569
▁나갔다	-11.0577
▁형편	-11.0578
▁이루어져	-11.0578
▁이쁨	-11.0579
▁기스가	-11.0579
▁모발	-11.058
맛나	-11.0581
▁추억	-11.0583
▁절차	-11.0583
▁불빛	-11.0584
▁사이드	-11.0584
▁발에	-11.0588
▁잘되어서	-11.0592
▁어렵다	-11.0593
▁보던	-11.0593
이어	-11.0593
▁즉위	-11.0594
▁당김이	-11.0598
었구요	-11.0598
되지만	-11.0599
▁이익	-11.0599
▁밥솥	-11.06
위원장	-11.06
▁샌드위치	-11.06
는건지	-11.0601
▁의견을	-11.0602
▁만족이에요	-11.0603
▁들어와서	-11.0604
여름	-11.0604
끄러	-11.0605
▁확신	-11.0606
▁어서	-11.0607
빠르네요	-11.0609
▁아버지의	-11.0609
▁택배비	-11.061
▁바나나	-11.0612
▁점이다	-11.0616
윈	-11.062
▁권리	-11.0621
▁임의로	-11.0621
가는데	-11.0622
조리	-11.0627
으므로	-11.0627
▁있나요	-11.0628
하시길	-11.0628
▁벗겨	-11.0628
▁놔	-11.063
▁정수기	-11.0631
헤드	-11.0631
▁초등	-11.0632
▁안써봤지만	-11.0632
▁탕	-11.0635
▁그러자	-11.0636
▁아이에게	-11.0637
▁국회의원	-11.064
▁금속	-11.0641
▁국립	-11.0642
▁한일	-11.0643
▁승리를	-11.0643
▁적극적으로	-11.0644
▁공무원	-11.0645
▁떨어뜨리	-11.0646
병을	-11.0647
형은	-11.0647
▁붕	-11.0648
차에	-11.0648
▁고민하고	-11.0649
줘	-11.065
통을	-11.065
▁동기	-11.0654
▁느끼지	-11.0658
▁방영	-11.066
무늬	-11.066
▁장점은	-11.066
▁그것만	-11.0663
▁똥손	-11.0664
▁서울시	-11.0664
▁고소하니	-11.0666
▁유투브	-11.0666
▁않더라구요	-11.0666
향수	-11.0668
▁보풀이	-11.0668
▁갖	-11.067
▁걱정을	-11.0671
법에	-11.0673
▁깨지	-11.0676
▁좋아하지	-11.0678
자금	-11.0678
예쁘고	-11.0678
▁도착한	-11.0682
▁곤란	-11.0682
▁바꿔봤는데	-11.0683
명은	-11.0685
▁물걸레	-11.0686
▁동맹	-11.0686
▁가만히	-11.0686
▁쓰긴	-11.0687
▁유지력	-11.0687
으로만	-11.0689
▁부근	-11.069
▁배송해	-11.0691
▁행성	-11.0694
▁몰라요	-11.0694
▁만났	-11.07
받자마자	-11.0701
산이	-11.0702
▁방학	-11.0703
▁스파게티	-11.0704
▁지나니	-11.0704
▁입자	-11.0707
▁발라보	-11.0707
번째	-11.0709
▁승인	-11.0711
▁화장품이	-11.0712
보이네요	-11.0714
림이	-11.0715
▁프랑스의	-11.0715
▁바꿔서	-11.0716
▁미세	-11.0716
▁밝아	-11.0717
묻	-11.0717
▁산지	-11.0718
▁확인할	-11.0718
버렸다	-11.072
아버지	-11.072
▁미용실에서	-11.0721
▁사먹어요	-11.0721
▁있겠네요	-11.0725
▁헤드셋	-11.0726
▁거지	-11.0727
▁플	-11.0727
마리	-11.073
▁큰데	-11.0733
▁과하지	-11.0734
▁더워	-11.0734
제조	-11.0735
▁괜찮았	-11.0738
▁언젠가	-11.0739
▁심플한	-11.074
▁기사분	-11.074
▁무려	-11.0744
트라	-11.0744
▁액	-11.0745
해봤어요	-11.0747
대상	-11.0747
사용하는	-11.0749
▁디자인에	-11.0749
▁기대하며	-11.075
▁우수합니다	-11.075
▁낳	-11.0751
▁바르니까	-11.0753
▁신앙	-11.0754
▁일어날	-11.0754
▁싸우	-11.0756
▁덥	-11.0756
▁꿀맛	-11.0757
▁걱정없이	-11.0757
▁인근	-11.0758
▁쌓아	-11.0763
하겠	-11.0764
륜	-11.0766
체계	-11.0769
나마	-11.0769
▁가방이	-11.0772
한달	-11.0773
▁형태의	-11.0775
▁밥이	-11.0776
▁녹색	-11.0777
▁찾아보	-11.0779
▁먹으면서	-11.078
맛있게	-11.0781
괜찮은	-11.0781
▁상태는	-11.0783
▁합성	-11.0783
▁입장에서	-11.0784
당의	-11.0784
▁전체적인	-11.0785
▁우승을	-11.0787
▁만족스러워	-11.0788
▁들고다니기	-11.0788
▁무늬	-11.0788
▁제로	-11.0789
▁사건을	-11.0789
▁지나고	-11.0791
▁태어난	-11.0792
▁때문이었다	-11.0793
▁건성인데	-11.0794
점에	-11.0795
떠	-11.0795
▁없으며	-11.0796
▁딜	-11.0798
▁빠지지	-11.0798
▁재밌	-11.0799
▁참으로	-11.08
▁붙이기도	-11.0801
사리	-11.0801
하듯	-11.0804
▁여부	-11.0804
▁신뢰가	-11.0804
▁그맛	-11.0805
▁단일	-11.0805
볼까	-11.0805
좋아해서	-11.0807
▁여기꺼	-11.0808
▁필름이	-11.0808
▁꽂아	-11.0808
세일	-11.081
새우	-11.0811
▁말랑말랑	-11.0812
▁안녕하세요	-11.0813
▁일도	-11.0816
▁권한	-11.0817
평가	-11.0817
았던	-11.0818
사상	-11.0819
거리며	-11.082
버터	-11.082
▁집게	-11.0821
세가	-11.0822
▁만족한	-11.0823
베이스	-11.0823
▁저것	-11.0823
봣는데	-11.0828
▁프로폴리스	-11.0833
▁심장	-11.0834
▁하긴	-11.0835
랄까	-11.0836
염색	-11.0836
▁총재	-11.0837
저도	-11.0838
연구소	-11.0839
▁송풍구	-11.0839
할수있어서	-11.084
▁중고	-11.0841
▁열리는	-11.0843
▁고가	-11.0844
▁나눠서	-11.0845
▁크릴오일	-11.0846
▁두박스	-11.0851
▁있을지	-11.0851
수있어	-11.0851
▁이념	-11.0851
▁정확하고	-11.0853
있으니	-11.0853
▁어린이집	-11.0854
▁나아	-11.0856
▁따끔	-11.0856
▁식구들	-11.0859
검색	-11.086
단은	-11.0863
▁색을	-11.0864
▁저번	-11.0866
▁난다고	-11.0866
▁맑은	-11.0869
편이에요	-11.0869
뎅	-11.087
▁애들도	-11.087
▁기침	-11.0872
야하는데	-11.0872
일어나	-11.0872
▁오래가는	-11.0874
▁보송	-11.0874
▁멤버	-11.0876
▁있고요	-11.0877
버려	-11.0878
렸어요	-11.088
끼고	-11.088
▁얹	-11.0883
▁과제	-11.0884
팟	-11.0885
▁착색	-11.0886
▁재구매할게요	-11.0886
▁코카콜라	-11.0887
▁잘모르겠	-11.0887
관련	-11.0887
▁가기	-11.0892
▁옛날에	-11.0892
▁끈적임도	-11.0893
볼께요	-11.0893
▁셔츠	-11.0894
▁가이드	-11.0895
병이	-11.0896
▁몰랐	-11.0899
▁잘붙	-11.09
▁할인쿠폰	-11.0902
▁보험	-11.0902
▁움직이는	-11.0903
하네여	-11.0904
▁저자극	-11.0905
먹어봤는데	-11.0905
▁마지막에	-11.0908
▁편안합니다	-11.091
▁잘맞는	-11.0911
▁장비	-11.0911
▁정도입니다	-11.0913
▁태어났다	-11.0913
전쟁	-11.0919
▁주문입니다	-11.0922
셈	-11.0922
▁아침대용으로	-11.0922
▁번가	-11.0924
▁차로	-11.0928
▁원했는데	-11.0933
삐	-11.0936
언니	-11.0936
호가	-11.0938
틸	-11.0939
▁받아들이	-11.0939
▁번째로	-11.094
펴	-11.0941
▁주정도	-11.0941
▁도라지	-11.0943
▁많이들	-11.0944
▁나름대로	-11.0944
▁짱짱하고	-11.0951
▁불편하고	-11.0951
만으로	-11.0951
발라도	-11.0952
▁선물할	-11.0953
▁배송중	-11.0955
▁분실	-11.0955
▁디올	-11.0955
▁합리적	-11.0957
적이다	-11.0958
직원	-11.0958
커요	-11.0961
▁안방	-11.0963
▁늦어	-11.0964
받았습니다	-11.0964
▁진정한	-11.0967
▁밀리지	-11.0967
▁향에	-11.0968
색깔	-11.0968
▁발바닥	-11.097
등을	-11.097
여기	-11.097
있는거	-11.0973
▁줄어들	-11.0976
▁구워서	-11.098
전자	-11.0986
▁배려	-11.0987
성으로	-11.0988
쌍	-11.0988
▁듣기	-11.0988
▁땡기	-11.0991
▁털어	-11.0993
▁중소기업	-11.0995
▁자세	-11.0996
지는데	-11.0996
었어	-11.0997
▁선전	-11.0997
▁법칙	-11.0997
이에여	-11.1
▁도달	-11.1
리지	-11.1003
이번	-11.1003
져야	-11.1003
▁상한	-11.1003
학을	-11.1004
냄	-11.1005
▁중성	-11.1011
▁찍은	-11.1012
표를	-11.1013
▁랩	-11.1016
▁발라요	-11.1016
▁달라붙	-11.1017
▁그러니	-11.1018
▁냄새나	-11.1019
▁반해서	-11.1019
▁스며드는	-11.102
▁칙칙	-11.1022
▁구름	-11.1022
▁빌려	-11.1022
▁공통	-11.1023
▁적합	-11.1023
해봅니다	-11.1023
▁납작	-11.1024
편하게	-11.1025
▁차원에서	-11.1025
될듯	-11.1025
▁아껴	-11.1026
▁사발면	-11.103
▁써오던	-11.1032
▁차원	-11.1033
▁설치는	-11.1035
▁걸레	-11.1036
▁자치	-11.1036
빠지	-11.1037
▁설마	-11.1038
정의	-11.104
꼼꼼	-11.1043
▁음식물	-11.1043
샘	-11.1043
려나	-11.1044
천원	-11.1044
다시피	-11.1045
교수	-11.1045
▁지속되	-11.1046
▁담아서	-11.1047
▁돌아가는	-11.1047
마르	-11.1049
▁복숭아	-11.105
▁선풍기	-11.1051
▁토마토	-11.1051
데로	-11.1052
▁세기에	-11.1055
▁기어	-11.1055
▁습관	-11.1055
▁베란다	-11.1059
츄	-11.1059
▁쓸만한	-11.106
▁우수한	-11.1061
▁도톰	-11.1063
▁주목	-11.1063
냉	-11.1065
▁잇어요	-11.1066
▁엉망	-11.1067
해보이고	-11.1068
▁철수	-11.1068
▁소스가	-11.107
▁나타난다	-11.1072
밑에	-11.1072
판에	-11.1072
▁꽉차	-11.1073
▁능력을	-11.1074
▁사계절	-11.1074
▁입어야	-11.1075
았네요	-11.1075
▁여행가서	-11.1076
상은	-11.1077
▁당기	-11.1077
▁지급된	-11.1078
▁무게감	-11.1079
▁안쓰	-11.1079
▁하단	-11.1079
▁먹은지	-11.1081
▁예측	-11.1081
▁서서히	-11.1082
▁해먹	-11.1084
▁벌레	-11.1085
▁발림	-11.1086
▁청바지	-11.1087
▁결심	-11.1087
할려고	-11.1088
▁우체국	-11.1089
때까지	-11.109
▁계신	-11.109
▁떨어졌	-11.1091
▁따듯	-11.1092
에다	-11.1093
▁어묵탕	-11.1093
▁태풍	-11.1094
▁곳으로	-11.1095
▁강도	-11.1097
드라	-11.1098
▁인하여	-11.1098
▁한입	-11.1099
▁힘들었어요	-11.1099
▁올린	-11.11
▁당연한	-11.1101
▁단독	-11.1101
▁비행	-11.1102
한느낌	-11.1103
계를	-11.1105
이게	-11.1109
학의	-11.111
좋아여	-11.1112
습니	-11.1112
용은	-11.1113
▁남친	-11.1114
▁본드	-11.1114
▁부각	-11.1115
▁아래쪽	-11.1116
곳에서	-11.1117
해주면	-11.1117
▁색으로	-11.1119
▁매콤한	-11.112
▁구수한	-11.1122
▁쫙	-11.1123
▁풍부	-11.1124
▁아파요	-11.1124
▁사먹을	-11.1124
▁이르는	-11.1127
쓰려고	-11.1128
▁꽁꽁	-11.1133
▁이집트	-11.1133
▁거리는	-11.1134
▁그리구	-11.1134
할때도	-11.1136
마냥	-11.1137
▁제회	-11.1138
▁소위	-11.1138
▁자르	-11.1139
▁곁	-11.114
▁단단	-11.1141
붙이	-11.1141
▁버튼이	-11.1142
▁보내드렸는데	-11.1142
▁됐네요	-11.1142
▁앉는	-11.1142
▁년이	-11.1143
▁덜한	-11.1143
▁낭	-11.1144
▁구매해봅니다	-11.1145
▁항상쓰는	-11.1146
났다	-11.1147
해질	-11.1148
안되서	-11.1151
▁바이러스	-11.1151
포장이	-11.1152
▁치아	-11.1155
▁가격만	-11.1155
▁욕심	-11.1156
▁파란	-11.1156
▁큰걸로	-11.1157
텍	-11.1159
▁비교해서	-11.1159
▁바로바로	-11.1159
▁그램	-11.1159
▁고소해요	-11.116
▁세계의	-11.1161
▁어쩌면	-11.1161
▁분노	-11.1162
▁한시간	-11.1163
▁경기에	-11.1163
신문	-11.1164
입맛	-11.1164
약을	-11.1168
▁커피가	-11.1168
회장	-11.1169
▁지우	-11.117
▁움직임	-11.117
▁연관	-11.1171
세탁	-11.1171
힘들	-11.1174
▁포장과	-11.1175
▁지니고	-11.1176
▁같애요	-11.1177
▁음악을	-11.1177
▁것인데	-11.1178
▁좋더라고요	-11.1178
틴트	-11.1179
▁하시고	-11.1179
▁위주로	-11.1179
전부터	-11.1179
▁고급스러워요	-11.118
▁고용	-11.1182
토리	-11.1182
▁시중보다	-11.1183
넓	-11.1184
▁키우	-11.1184
어져	-11.1188
▁보리	-11.1188
정품	-11.1188
▁투명한	-11.1189
▁그러다	-11.1192
기사	-11.1193
브리	-11.1194
시의	-11.1195
▁약해	-11.1195
쥐	-11.1195
밖	-11.1196
내에	-11.1196
▁걱정은	-11.12
▁원정	-11.12
▁안된	-11.12
▁좁아	-11.1201
▁머물	-11.1201
▁관광	-11.1202
▁콩나물	-11.1202
▁느낌이랄까	-11.1203
▁붓기	-11.1203
멘	-11.1206
▁오류	-11.1206
▁의미한다	-11.1207
▁느려서	-11.1207
▁집권	-11.1207
▁포장되어서	-11.1207
드가	-11.1208
▁재질은	-11.1208
빠름	-11.121
그럼	-11.121
▁데에	-11.1211
▁터지	-11.1213
▁먹기엔	-11.1214
▁바느질	-11.1214
▁혈	-11.1214
▁적절	-11.1214
▁사용중인	-11.1215
▁행사로	-11.1216
▁받는다	-11.1217
▁아메리카노	-11.1218
▁오리지날	-11.1221
장과	-11.1222
따로	-11.1222
▁이란	-11.1223
▁상품의	-11.1224
다는게	-11.1227
쿨	-11.1229
▁쪄서	-11.1232
▁없던	-11.1234
하거든요	-11.1235
▁아이들에게	-11.1237
▁적응이	-11.1237
▁티슈	-11.1238
▁반찬으로	-11.1239
▁색깔은	-11.1239
모드	-11.124
▁자극없고	-11.1241
▁올라온	-11.1242
▁어려워	-11.1242
사은품	-11.1242
▁센치	-11.1246
▁신으면	-11.1249
▁일본인	-11.125
▁마일드	-11.125
▁발림이	-11.1251
델	-11.1251
▁묻어있	-11.1252
문이	-11.1253
▁아닌것	-11.1253
▁누군가	-11.1254
혔다	-11.1255
입어	-11.1255
▁놀러	-11.1255
자에	-11.1258
▁비슷하게	-11.1261
▁두개를	-11.1262
▁규제	-11.1264
▁색상을	-11.1264
▁규	-11.1266
▁차지하고	-11.1268
▁진공	-11.1269
다녀	-11.127
므	-11.1271
▁엑스	-11.1271
으리라	-11.1272
▁주문후	-11.1272
▁이에요	-11.1273
▁한거	-11.1273
▁기본으로	-11.1274
▁유전	-11.1275
뮤	-11.1275
쉽고	-11.1276
▁주위에	-11.1276
보를	-11.128
▁찾아가	-11.1281
일을	-11.1281
▁여론	-11.1281
▁샀고	-11.1281
크게	-11.1286
정은	-11.1287
▁당분간	-11.1288
▁만드	-11.1288
금액	-11.129
▁간편한	-11.129
▁타사제품	-11.129
▁백탁	-11.1294
▁들어있어요	-11.1295
▁콧	-11.1295
▁아프고	-11.1295
▁저같은	-11.1296
▁지향	-11.1296
심을	-11.1297
할까봐	-11.1297
유통기한	-11.1298
역을	-11.1298
▁만두국	-11.1304
▁만져	-11.1305
샤워	-11.1307
상에서	-11.131
▁왕조	-11.1311
셨는데	-11.1311
▁라벤더	-11.1312
찾아	-11.1313
▁극장	-11.1315
해야하나	-11.1317
화면	-11.1318
스티커	-11.1319
품을	-11.1319
▁원단이	-11.1319
▁물티슈로	-11.132
여성	-11.132
거겠죠	-11.1324
▁작을	-11.1324
▁접시	-11.1324
▁휘어	-11.1324
저희	-11.1324
후보	-11.1324
▁섞인	-11.1325
▁두껍지	-11.1326
▁장시간	-11.1329
▁가능할	-11.1331
컷	-11.1331
베르	-11.1335
▁백만	-11.1337
▁서비스도	-11.1338
▁입구가	-11.1338
▁장악	-11.1341
립스틱	-11.1341
▁다행입니다	-11.1342
▁한방울	-11.1342
▁내는	-11.1343
▁세게	-11.1345
▁여유가	-11.1346
▁돌리고	-11.1347
▁느껴	-11.1347
▁군만두	-11.1349
▁썼습니다	-11.1351
▁제품들은	-11.1352
▁당근	-11.1353
▁고객센터	-11.1353
▁강남	-11.1354
▁나사가	-11.1355
킴	-11.1357
▁따르	-11.1359
▁비율	-11.1359
이었	-11.1366
▁메뉴	-11.1369
▁보며	-11.137
맛을	-11.1371
장치	-11.1371
파의	-11.1372
▁물체	-11.1374
중이	-11.1374
냈	-11.1374
▁들어가면	-11.1375
▁낮아서	-11.1378
▁패스	-11.1379
▁불을	-11.138
▁나아지	-11.1381
▁청소하기	-11.1382
▁계승	-11.1382
▁기도	-11.1382
▁마시려고	-11.1384
떨어지	-11.1385
▁향과	-11.1386
▁블러셔	-11.1386
▁작성해주세요	-11.1387
먹었네요	-11.1387
▁맛있더라구요	-11.1388
▁전체에	-11.1391
▁아시	-11.1392
▁미숫가루	-11.1393
▁마음에듭니다	-11.1394
▁심해	-11.1394
▁관계자는	-11.1396
서울	-11.1397
▁흔들어	-11.1397
▁발사	-11.1397
지워	-11.1399
이고요	-11.1399
▁군더더기	-11.14
▁안주로	-11.14
▁계기로	-11.1402
▁머리결	-11.1403
▁주가	-11.1403
▁만족만족	-11.1403
▁맵지	-11.1405
▁높다	-11.1408
▁유목민	-11.1412
싹	-11.1413
▁모르겠음	-11.1414
▁떨어집니다	-11.1414
▁본사	-11.1415
청소기	-11.1415
칩	-11.1416
식의	-11.1416
▁호소	-11.1418
▁보름	-11.1419
▁윤기가	-11.1419
미리	-11.142
▁제품이라고	-11.1421
▁픽서	-11.1422
▁장미	-11.1423
▁정전기	-11.1426
▁상실	-11.1428
▁삭제	-11.1429
▁머리도	-11.1429
▁사용하던거라	-11.1431
▁흡입	-11.1431
▁좋아하셨어요	-11.1431
▁느렸어요	-11.1432
▁터키	-11.1433
▁너무좋습니다	-11.1434
라구	-11.1436
스카	-11.1436
▁사용전입니다	-11.1437
상황	-11.1438
▁말리	-11.1443
▁바래요	-11.1443
▁구매할수	-11.1444
▁우리에게	-11.1445
▁공주	-11.1446
▁복용하고	-11.1448
▁낱개	-11.1448
해주셨습니다	-11.1449
신청	-11.1449
▁달린	-11.145
체가	-11.1451
스로	-11.1452
뿌리	-11.1453
쓰고있어요	-11.1453
▁병력	-11.1454
▁할거	-11.1454
▁원피스	-11.1455
▁중인	-11.1459
멜	-11.1459
브러쉬	-11.1461
▁대만	-11.1461
▁논란	-11.1462
자체는	-11.1464
금방	-11.1464
모가	-11.1465
▁밍밍	-11.1466
▁지불	-11.1466
매번	-11.1466
▁소시지	-11.1466
▁안돼	-11.1467
▁될까	-11.1468
▁줄여	-11.1468
듣고	-11.1469
▁지나치게	-11.1469
▁햇	-11.1473
지인	-11.1474
▁고장없이	-11.1475
▁못하지만	-11.1477
▁아파	-11.1478
▁추억의	-11.1478
체를	-11.148
물론	-11.1481
반품	-11.1482
▁채우	-11.1485
▁셈	-11.1485
▁마트에	-11.1485
▁물러	-11.1486
▁끌려	-11.1486
▁안타	-11.1486
하므로	-11.1489
여기서	-11.1489
▁다리를	-11.1489
▁하기에	-11.149
뱅	-11.1492
▁비리	-11.1494
조각	-11.1495
▁방식이	-11.1495
치기	-11.1496
잇어서	-11.1497
▁이만한게	-11.1498
▁천장	-11.1498
▁쥬스	-11.1499
▁한마디	-11.15
같은데	-11.1501
▁석유	-11.1502
▁말이죠	-11.1504
▁잘해주시고	-11.1507
▁보조배터리	-11.1507
봣	-11.1509
▁친구들이	-11.1509
▁나긴	-11.1512
▁트리	-11.1512
▁경고	-11.1513
▁내용물은	-11.1514
▁초코맛	-11.1515
다며	-11.1516
교체	-11.1516
▁영혼	-11.1518
사탕	-11.1518
▁없어도	-11.1518
▁시원해요	-11.1519
▁전반	-11.152
▁잊	-11.152
▁상대방	-11.1521
느니	-11.1524
수분	-11.1526
▁안된다고	-11.1526
▁희생	-11.1526
▁씻기	-11.1527
▁이제품이	-11.1528
▁보송보송	-11.1529
▁강해요	-11.153
▁국경	-11.1531
▁축소	-11.1532
▁간섭	-11.1532
▁움	-11.1533
▁감은	-11.1534
▁그러다가	-11.1535
▁들구요	-11.1536
모토	-11.1536
노동	-11.1537
서도	-11.154
▁윤기	-11.1542
▁자전거	-11.1544
▁당국	-11.1544
방에서	-11.1545
없을	-11.1547
▁구매하기	-11.1548
▁동안에	-11.1548
▁품목	-11.1549
▁유도	-11.155
미는	-11.1555
▁파시	-11.1555
▁바탕	-11.1557
다니기	-11.1558
느낌은	-11.1559
▁맘이	-11.1559
종의	-11.1561
▁상단	-11.1563
▁인기를	-11.1563
▁걷	-11.1564
▁쇼핑몰	-11.1565
▁듀얼	-11.1565
되는것	-11.1566
▁끓여서	-11.1567
▁단연	-11.1569
▁볶	-11.1569
하겠다는	-11.157
▁삭	-11.157
▁춘	-11.157
▁흐르	-11.157
▁세계를	-11.1571
▁받침	-11.1572
는듯	-11.1575
▁일으키	-11.1575
▁노출	-11.1577
▁동부	-11.1579
▁보습력은	-11.1579
▁요긴하게	-11.1579
▁듯합니다	-11.1579
▁어머니의	-11.158
▁나선	-11.158
▁다양하고	-11.1583
싶은데	-11.1583
▁사후	-11.1584
▁믿을만	-11.1585
▁초록	-11.1585
▁알리	-11.1586
쟁	-11.1587
괴	-11.1591
▁원인이	-11.1592
▁여름이	-11.1592
식이라	-11.1592
▁쓰는게	-11.1593
뭇	-11.1593
순간	-11.1594
부드럽고	-11.1594
▁쿠션감	-11.1595
▁배송료	-11.1595
▁보호필름	-11.1595
짐이	-11.1596
▁응원	-11.1596
▁맡고	-11.1597
▁년동안	-11.1599
▁나오는데	-11.1599
▁초보	-11.1599
▁좋아할	-11.1601
▁건강하게	-11.1602
▁구매했구요	-11.1603
▁웹	-11.1604
▁많을	-11.1605
좋았습니다	-11.1605
비타민	-11.1605
넌	-11.1605
▁말할것도	-11.1607
▁어떨까	-11.1608
▁세계에서	-11.1609
▁관료	-11.161
제품이에요	-11.161
▁뽁뽁이에	-11.1613
발전	-11.1613
▁총선	-11.1614
겠는가	-11.1614
▁깨지지	-11.1615
▁일종의	-11.1615
▁저런	-11.1615
▁텐데	-11.1616
▁쓰이는	-11.1617
▁뜻이	-11.1617
▁들어가지	-11.1618
바를	-11.1619
낮	-11.1619
▁전체를	-11.1621
▁병행	-11.1622
▁맞추	-11.1622
▁비중	-11.1622
▁별로입니다	-11.1622
가구	-11.1622
상태가	-11.1624
▁번갈아	-11.1625
▁다르고	-11.1626
▁붙였는데	-11.1627
▁분해	-11.1628
▁기름진	-11.163
▁싸이닉	-11.163
희는	-11.1631
▁벗기	-11.1631
▁받으니	-11.1632
먼저	-11.1633
봉투	-11.1637
▁마시던	-11.1637
▁팔이	-11.164
▁주먹	-11.1641
상품은	-11.1641
▁맛납니다	-11.1642
▁무장	-11.1644
해주시는	-11.1645
▁촉촉해	-11.1647
스토	-11.1649
▁않으며	-11.1649
▁포장상태가	-11.1651
▁웬만한	-11.1653
▁않다고	-11.1655
▁구매해야겠어요	-11.1655
두부	-11.1657
▁감수	-11.1659
▁번들	-11.1659
▁사진에서	-11.166
▁논쟁	-11.166
▁유기	-11.1661
▁반값	-11.1662
략	-11.1662
▁평가를	-11.1663
▁발생한	-11.1663
▁항의	-11.1664
▁서술	-11.1664
▁그녀를	-11.1664
▁싶다고	-11.1665
▁자극적이	-11.1665
▁위쪽	-11.1665
▁놓으면	-11.1667
▁하였는데	-11.1668
▁저희는	-11.1668
▁쪽에	-11.1668
되는게	-11.1668
▁묻혀서	-11.167
▁엄마는	-11.1672
▁세수하고	-11.1675
▁억지로	-11.1676
투자	-11.1678
탓	-11.168
▁전송	-11.168
▁신생아	-11.1681
▁종료	-11.1682
보험	-11.1682
▁데워	-11.1683
▁압박	-11.1684
▁살해	-11.1684
았으면	-11.1685
▁세척도	-11.1687
오네요	-11.1687
▁품질에	-11.1688
▁낱개로	-11.1689
▁명으로	-11.1689
▁큰사이즈	-11.1689
▁케이블이	-11.169
▁내렸다	-11.1691
▁주문하면	-11.1693
자연	-11.1693
▁쨍	-11.1697
▁해안	-11.1698
▁씹히는	-11.1698
▁유래	-11.1699
겨서	-11.1701
▁치우	-11.1706
▁시민들	-11.1706
▁얻을	-11.1711
고기	-11.1713
▁공간에	-11.1714
렵	-11.1716
▁보이는데	-11.1716
드린	-11.1716
▁미스	-11.1717
▁입을수	-11.1717
▁밝히	-11.1718
▁바꾸어	-11.1719
▁토요일에	-11.1719
▁이들이	-11.1719
▁류	-11.1721
▁떨어지기	-11.1721
▁진주	-11.1723
▁있는가	-11.1724
▁짜고	-11.1726
▁몰아	-11.1727
▁데서	-11.1729
그랬	-11.1729
▁쫄면	-11.173
▁갤	-11.1731
▁나타난	-11.1732
▁제형은	-11.1732
▁한것	-11.1732
▁추측	-11.1733
맛있네요	-11.1733
▁링	-11.1735
▁시청	-11.1735
▁보자마자	-11.1735
▁기재	-11.1736
▁위치를	-11.1738
▁생각만큼	-11.174
▁하실	-11.1741
▁편한데	-11.1742
▁대해서도	-11.1742
▁일로	-11.1743
▁잉	-11.1743
리오	-11.1745
보는데	-11.175
▁빠른편	-11.1751
듀	-11.1752
▁짭짤	-11.1755
▁쿠션감이	-11.1759
들어요	-11.1761
▁목록	-11.1762
▁어렵네요	-11.1763
▁인권	-11.1764
▁찾아보고	-11.1765
▁연하게	-11.1765
▁검색하다	-11.1765
▁수납장	-11.1768
▁가성비로	-11.1769
▁루테인	-11.1769
▁아프지	-11.177
잡아	-11.177
▁추워	-11.1773
▁하시면	-11.1774
▁세종	-11.1777
먹어야	-11.1778
된거	-11.1779
쓰니	-11.1781
붓	-11.1782
▁대부분이	-11.1782
▁믿을수	-11.1782
▁어려웠	-11.1784
▁딱맞고	-11.1786
▁즙	-11.1787
▁왕창	-11.1787
▁역사를	-11.1789
▁알았다	-11.1789
▁물처럼	-11.1791
▁깜빡	-11.1791
러스	-11.1794
▁껌	-11.1797
▁분사력이	-11.1797
켰	-11.1797
▁동쪽	-11.1798
면에	-11.1799
▁섬유	-11.1799
단지	-11.18
▁담고	-11.1802
▁이같은	-11.1803
크기도	-11.1804
▁동봉	-11.1806
▁돌아다니	-11.1806
▁농촌	-11.1807
▁전쟁을	-11.1812
▁학교에서	-11.1815
▁같고요	-11.1817
▁퍼지	-11.1818
▁고쳐	-11.1818
▁파마	-11.1819
▁반지	-11.1819
▁적당하게	-11.1819
개가	-11.1819
▁가공	-11.182
▁구역	-11.182
▁유연	-11.182
▁건조해지	-11.1821
▁조절도	-11.1821
▁짱이네요	-11.1822
▁배송빠르게	-11.1822
▁온도가	-11.1823
붕	-11.1823
▁교육을	-11.1824
▁라지	-11.1824
스러워	-11.1824
▁자살	-11.1824
▁초등학교	-11.1826
▁맞았	-11.1827
▁어울리고	-11.1828
네욤	-11.1828
▁울트라	-11.183
▁적립금	-11.1831
▁교류	-11.1831
▁보고서	-11.1833
▁지갑	-11.1835
따뜻	-11.1835
정신	-11.1836
▁이스라엘	-11.1836
▁모기	-11.1838
스럽	-11.1839
▁지저분	-11.184
▁여자는	-11.184
신이	-11.1841
야하는	-11.1842
▁선배	-11.1843
▁다녀	-11.1844
▁다른것	-11.1845
▁붙이면	-11.1845
▁거슬리	-11.1845
▁차가운	-11.1847
▁말리고	-11.1847
▁찢어져서	-11.1848
둬	-11.1849
▁컨	-11.185
주의적	-11.1855
▁밀리는	-11.1856
▁큐	-11.1857
▁쓸것	-11.1858
▁표현이	-11.1858
▁슥슥	-11.1858
로우	-11.1859
▁수납도	-11.186
했어	-11.1861
▁소수	-11.1861
▁전파	-11.1862
▁매끈해	-11.1862
▁나쁘지않	-11.1863
▁옳	-11.1863
▁피부에는	-11.1864
▁저렴한거	-11.1864
▁높이도	-11.1865
▁심각	-11.1865
코스	-11.1866
▁농사	-11.1866
할거같아요	-11.1867
분께	-11.1867
▁같았는데	-11.1868
▁타먹	-11.1868
▁완전좋아요	-11.1868
▁건조해	-11.1871
경이	-11.1872
▁상업	-11.1872
▁만들때	-11.1872
해본	-11.1872
였음	-11.1874
▁닦는	-11.1874
▁안으로	-11.1875
▁뭐지	-11.1878
차례	-11.1879
▁갖춘	-11.1881
▁위치에	-11.1881
▁든든합니다	-11.1881
빠지는	-11.1882
▁중대	-11.1882
▁화면이랑	-11.1883
드리고	-11.1884
잇는	-11.1885
▁예정이다	-11.1886
▁바퀴가	-11.1891
▁서울우유	-11.1892
증이	-11.1893
▁쉽습니다	-11.1893
▁회담	-11.1894
▁써보면	-11.1896
하에	-11.1897
▁벼	-11.1898
▁은은해서	-11.1898
쥬스	-11.1901
보았는데	-11.1901
▁잡혀	-11.1902
씀	-11.1904
해주시	-11.1904
▁비린내	-11.1904
▁몰랐어요	-11.1907
▁편했어요	-11.1907
▁또다시	-11.1907
끝에	-11.1907
콤	-11.1909
▁고맙	-11.191
▁색상으로	-11.191
▁편의	-11.191
▁귀찮고	-11.191
상품이	-11.1912
고나면	-11.1914
셔도	-11.1914
▁유일하게	-11.1915
▁땅에	-11.1917
▁먼가	-11.1917
▁보람이	-11.1917
▁스판	-11.1919
됐네요	-11.1919
▁샌	-11.192
▁지키	-11.192
▁싶었던	-11.192
먹어보	-11.1921
▁수선	-11.1922
되는거	-11.1922
▁어쩔수없	-11.1922
▁쿠션감도	-11.1923
▁값이	-11.1924
▁지워지고	-11.1926
좋게	-11.1926
▁세운	-11.1927
▁감시	-11.1927
자들	-11.1929
▁필요없는	-11.1931
▁그냥그래요	-11.1932
세제	-11.1933
떨	-11.1933
전이지만	-11.1937
▁방에서	-11.1937
▁지은	-11.1938
하심	-11.1941
▁맞는데	-11.1941
▁에어컨	-11.1941
거같은	-11.1944
▁순정	-11.1945
어떤	-11.1947
▁식량	-11.1947
▁시집	-11.1947
율이	-11.1949
▁넣으니	-11.195
▁간도	-11.1951
메이	-11.1951
▁평을	-11.1951
▁튀겨	-11.1955
▁잘샀	-11.1956
꺼예요	-11.1956
리어	-11.1957
▁부분에서	-11.1958
▁거는	-11.1958
▁닫히	-11.196
▁멸균우유	-11.196
▁국민들	-11.1961
▁도리	-11.1961
▁연결도	-11.1961
▁짜증나	-11.1962
▁튼튼하니	-11.1963
보진	-11.1965
▁스테	-11.1965
하더라고요	-11.1966
▁먹어볼	-11.1967
▁짧아	-11.1967
▁경력	-11.1968
으셨	-11.1968
▁되며	-11.1968
▁심정	-11.1969
▁찢어지	-11.1971
▁반복된	-11.1973
▁기록을	-11.1975
▁발견한	-11.1978
▁박정희	-11.1978
▁방이	-11.1979
▁괜춘	-11.1979
▁자녀	-11.1979
설명서	-11.1979
▁기쁨	-11.198
▁이마트몰	-11.198
▁올리브영에서	-11.198
▁이어서	-11.1981
▁차별	-11.1982
그라	-11.1982
▁예전보다	-11.1983
▁세월	-11.1983
끼가	-11.1984
전의	-11.1987
▁명품	-11.1987
▁시켜봤어요	-11.1989
▁튜브	-11.199
▁일이었다	-11.1992
▁적합한	-11.1992
▁사실이다	-11.1994
속에서	-11.1994
▁체감	-11.1996
▁맛있겠죠	-11.1996
냉동	-11.1998
조를	-11.1998
▁신경쓰이	-11.1999
▁넣어주셔서	-11.1999
▁느렸	-11.1999
▁셈이다	-11.2001
▁볼이	-11.2001
론이	-11.2002
이었지만	-11.2004
하겠어요	-11.2005
너무너무	-11.2005
▁앞쪽	-11.2006
▁동시	-11.2006
스테	-11.2006
▁빨강	-11.2008
▁움직이	-11.201
▁한층	-11.2011
▁일본에	-11.2011
▁들어갑니다	-11.2012
▁짧고	-11.2014
▁지났	-11.2014
▁불행	-11.2014
▁즐길	-11.2016
▁꺾	-11.2018
해줄	-11.2019
▁신부	-11.2019
▁느껴질	-11.202
▁안쓰는데	-11.2022
▁몰랐네요	-11.2023
▁코로나때문에	-11.2023
▁종일	-11.2023
▁측면에서	-11.2024
▁들어있네요	-11.2025
▁꾀	-11.2026
▁공업	-11.2027
▁영롱	-11.2028
치로	-11.2029
▁부드럽습니다	-11.203
▁누워서	-11.203
▁배변	-11.2035
땅	-11.2039
▁합쳐	-11.2039
▁박음질	-11.204
▁냉동식품	-11.2041
▁비닐에	-11.2041
십시오	-11.2043
바라	-11.2044
▁고장나	-11.2045
▁같더라구요	-11.2045
▁제약	-11.2045
▁들어가네요	-11.2046
▁부피가	-11.2046
▁맞는지	-11.2047
▁담백	-11.2047
이였어요	-11.2048
▁나왔으면	-11.2049
▁화요일	-11.205
▁번창	-11.205
▁보안	-11.2051
▁열어보니	-11.2051
▁쉽네요	-11.2055
▁시점	-11.2059
▁상관없이	-11.2061
치고는	-11.2062
▁남자친구가	-11.2062
▁쯤	-11.2064
▁내구성도	-11.2066
▁멈추	-11.2067
▁만들어주	-11.2068
에서만	-11.2068
▁복사	-11.207
▁쳐다보	-11.2073
▁걸렸습니다	-11.2074
▁만든다	-11.2074
▁오해	-11.2076
▁도착했고	-11.2076
▁저렴하면서	-11.2076
▁쓰려	-11.2078
▁양성	-11.2078
드렸어요	-11.2078
▁부러지	-11.2079
써야	-11.208
을까봐	-11.2081
▁나스	-11.2082
방을	-11.2085
▁죽이	-11.2085
드레	-11.2085
▁나라를	-11.2086
▁나쁘지않아요	-11.2087
▁중이에요	-11.2087
▁무게는	-11.2088
▁무색	-11.2088
▁입맛이	-11.2092
▁괜찮더라구요	-11.2093
▁맞춤	-11.2094
구는	-11.2094
발색	-11.2094
▁있다니	-11.2097
▁살림	-11.2097
븐	-11.2097
▁조지	-11.2098
▁사봤습니다	-11.2098
▁권위	-11.2099
쵸	-11.21
▁잘받앗습니다	-11.21
힙니다	-11.21
▁대신에	-11.2101
셨다	-11.2101
시를	-11.2102
▁체중	-11.2105
버전	-11.2107
▁커피믹스	-11.2109
욜	-11.211
▁세척이	-11.2111
▁년만에	-11.2111
▁호수	-11.2113
스턴	-11.2113
▁캐리어	-11.2115
▁안붙	-11.2117
일본	-11.2118
▁건국	-11.2121
용도로	-11.2122
▁더워서	-11.2123
▁심하고	-11.2125
▁르	-11.2126
▁처벌	-11.2126
▁구매자	-11.2128
▁보냈는데	-11.2128
▁기사님들	-11.2128
▁좋겠지만	-11.2129
탐	-11.2129
▁알게된	-11.2129
▁다른데서	-11.2131
▁돌아온	-11.2135
굽	-11.2137
▁나타내는	-11.2137
뭔가	-11.2137
▁밀봉	-11.2138
▁착화감	-11.2138
▁먹이기	-11.2138
주변	-11.2139
▁전이라	-11.214
형의	-11.214
▁시켜요	-11.2143
▁먹었더니	-11.2143
▁버섯	-11.2143
▁눕	-11.2143
▁안나오	-11.2144
▁시내	-11.2144
같아	-11.2145
되거나	-11.2147
▁한국어	-11.2148
▁이루고	-11.2148
▁여성의	-11.2148
▁포장으로	-11.2149
▁줘야	-11.215
▁책상에	-11.215
▁수원	-11.2151
딴	-11.2152
▁직전	-11.2153
▁너무좋아서	-11.2154
▁조용한	-11.2154
▁보여주는	-11.2154
▁서방	-11.2154
▁전쟁이	-11.2155
▁듯해요	-11.2156
▁김장	-11.2157
스프	-11.2159
쎄	-11.2159
▁재활용	-11.2162
▁양심	-11.2163
▁남아있는	-11.2163
▁아침저녁으로	-11.2165
▁버렸다	-11.2168
▁중세	-11.2171
▁모순	-11.2174
▁커버는	-11.2175
▁구매햇는데	-11.2176
▁카페에서	-11.2179
▁구입입니다	-11.218
▁명성	-11.2181
▁꽤나	-11.2181
▁크림치즈	-11.2181
▁하였고	-11.2183
▁마루	-11.2186
▁바람도	-11.2186
▁어떻	-11.219
온도	-11.2191
줘도	-11.2192
▁메탈	-11.2192
야겠네요	-11.2193
▁경향	-11.2194
▁상품평에	-11.2194
▁흡입력	-11.2195
▁써볼게요	-11.2197
▁광택	-11.2197
▁무선이라	-11.2198
주시면	-11.2198
젖	-11.2199
▁보유	-11.22
▁뜬	-11.2201
▁사려구요	-11.2202
▁물광	-11.2203
감자	-11.2203
▁유치	-11.2204
평이	-11.2205
▁머릿결도	-11.2205
▁적당하네요	-11.2205
▁돌아서	-11.2205
▁붙은	-11.2205
▁잦은	-11.2208
진이	-11.221
▁동봉된	-11.2211
겠어	-11.2213
▁받을수	-11.2215
뿐이	-11.2216
▁은퇴	-11.2217
▁이라크	-11.2217
▁것일까	-11.2218
▁중요하다	-11.2218
▁킹	-11.2218
두피	-11.2218
▁당초	-11.2219
▁상품인데	-11.2219
친다	-11.222
▁딱딱해서	-11.2221
▁되자	-11.2223
▁다니고	-11.2223
부러	-11.2224
▁새콤	-11.2225
▁힘들다	-11.2229
▁아토피	-11.223
▁충실	-11.223
▁사놓고	-11.223
▁각질도	-11.2232
▁마셨	-11.2233
▁훼손	-11.2238
▁섞여	-11.2238
▁수익	-11.2238
▁사보	-11.2239
이에용	-11.2239
려다가	-11.2239
하여야	-11.224
▁않다는	-11.224
▁딥	-11.224
▁그외	-11.2241
▁공간도	-11.2242
▁넣었는데	-11.2242
▁가게에서	-11.2242
론의	-11.2243
▁예선	-11.2244
랙	-11.2244
위치	-11.2245
▁쪽이	-11.2245
연대	-11.2245
애들	-11.2246
▁프로그램을	-11.2246
비교	-11.2247
권의	-11.2247
오스	-11.2252
▁꿈을	-11.2254
▁납	-11.2257
였으며	-11.2258
▁정지	-11.226
▁세가	-11.226
▁바르고나면	-11.2261
▁중간중간	-11.2262
웨	-11.2262
▁본선	-11.2263
▁고기도	-11.2264
▁똑같고	-11.2264
▁던지	-11.2264
▁전공	-11.2265
▁되는지	-11.2265
▁그해	-11.2265
▁있었으며	-11.2266
▁그림을	-11.2267
▁식사대용으로	-11.2268
▁비닐포장	-11.2268
▁싱겁	-11.2269
교회	-11.2271
▁많았다	-11.2272
타고	-11.2274
▁데이	-11.2277
▁발랐을	-11.2277
들만	-11.2278
덩이	-11.228
▁수분감도	-11.228
해야겠네요	-11.228
▁비슷하	-11.2281
피자	-11.2283
▁구석	-11.2283
▁좋을거라	-11.2283
▁전체가	-11.2285
▁소요	-11.2285
▁기뻐	-11.2286
스러워요	-11.2287
▁많지만	-11.2287
리의	-11.2287
▁이야기가	-11.2289
▁거부감이	-11.2289
감독	-11.229
없다	-11.229
들이다	-11.2292
넛	-11.2292
차는	-11.2292
▁브리	-11.2292
고구마	-11.2293
▁요구르트	-11.2293
▁트러블에	-11.2294
같네요	-11.2295
▁두배	-11.2295
▁먹이는	-11.2296
▁혜택	-11.2298
▁까만	-11.2298
▁놓는	-11.2298
▁뺏	-11.2299
▁지원을	-11.2299
▁모카골드	-11.23
▁삭제되며	-11.23
가지	-11.2302
▁전해	-11.2303
애가	-11.2303
▁뿐이	-11.2308
▁버렸어요	-11.231
▁후원	-11.231
▁수납공간도	-11.231
▁펌	-11.231
▁싼티	-11.2314
▁일하는	-11.2316
▁밭	-11.2316
▁신속하게	-11.2316
씨를	-11.2318
▁월요일에	-11.2319
값이	-11.2319
권이	-11.2321
본부	-11.2321
▁요것만	-11.2322
▁거리가	-11.2323
메이크업	-11.2323
▁일날	-11.2325
▁대안	-11.2326
▁툭	-11.2328
▁특히나	-11.2328
▁신속한	-11.2328
드라이	-11.233
▁안돼요	-11.2331
▁천만	-11.2331
▁소식	-11.2332
▁화질이	-11.2332
▁벨벳	-11.2332
크기가	-11.2332
선수	-11.2333
▁맞나요	-11.2333
▁마자	-11.2333
▁주셨	-11.2333
▁서쪽	-11.2334
▁세차	-11.2334
▁번들거리지	-11.2335
▁한봉	-11.2338
▁부활	-11.2338
▁되도록	-11.2339
▁존재하는	-11.2339
▁케이	-11.2339
▁진단	-11.2341
부담	-11.2342
▁유명하다	-11.2343
▁오버	-11.2343
같고	-11.2343
▁재주문했어요	-11.2344
▁만족하구요	-11.2345
검사	-11.2347
▁치약	-11.235
분들께	-11.2351
▁신제품	-11.2351
▁타일	-11.2351
꺼랑	-11.2351
▁싶을때	-11.2352
▁대량구매	-11.2354
▁사이트에서	-11.2355
▁볼트	-11.2356
▁나섰다	-11.2357
▁여겨	-11.2357
▁구매하	-11.236
▁아주만족합니다	-11.236
▁빗질	-11.236
▁시켰습니다	-11.2363
▁행사할때	-11.2364
▁상태를	-11.2365
니스	-11.2367
▁자켓	-11.2367
구멍	-11.2368
고있어요	-11.2369
▁먹으려구요	-11.237
▁두툼하고	-11.237
▁대용량이	-11.2372
▁신학	-11.2373
▁잘산것	-11.2375
▁사악	-11.2376
▁앉은	-11.2376
▁가질	-11.2377
넬	-11.2378
퓨	-11.2378
▁피해를	-11.2378
▁제조일자가	-11.2381
▁일어났다	-11.2383
▁열리	-11.2383
▁몇시간	-11.2384
▁다이소	-11.2385
▁관절	-11.2385
웠는데	-11.2386
▁느리네요	-11.2386
하십니다	-11.2387
▁행동을	-11.2389
▁생각나	-11.2389
컨	-11.2389
▁있긴한데	-11.239
▁배송일	-11.2392
▁심심할때	-11.2393
▁호흡	-11.2393
▁없구	-11.2396
▁화장품은	-11.2396
▁버렸	-11.2397
안해도	-11.2398
▁구운	-11.2398
▁고위	-11.2398
▁이른	-11.24
▁지켜보	-11.2401
▁경기장	-11.2404
놔	-11.2406
이번엔	-11.2406
▁쓰고나서	-11.2406
▁입맛엔	-11.2408
한건데	-11.2408
▁물맛	-11.2408
▁만날	-11.2409
▁탱탱	-11.2409
▁나서는	-11.2409
▁거죠	-11.2411
▁크레	-11.2412
▁분사력도	-11.2413
▁무덤	-11.2413
▁올렸	-11.2414
▁기다리는	-11.2414
▁팩을	-11.2415
▁복잡한	-11.2415
▁먹기는	-11.2415
려다	-11.2416
▁세정력은	-11.2418
▁경주	-11.2418
▁도마	-11.2419
▁들지만	-11.2419
타임	-11.2419
녕	-11.242
▁샘	-11.2423
구의	-11.2425
▁얘기가	-11.2427
주로	-11.2428
겔	-11.2433
▁일본은	-11.2433
돌리	-11.2433
▁꺼지	-11.2435
덕에	-11.2436
▁지워지지	-11.2437
제품인데	-11.2437
체의	-11.2438
▁시작되었다	-11.2439
▁조아여	-11.2441
▁연락이	-11.2443
▁펴지	-11.2444
물질	-11.2444
▁넣어두고	-11.2445
▁학교에	-11.2445
▁허전	-11.2447
▁아르	-11.2447
▁알맞	-11.2447
구리	-11.2447
▁흡수되는	-11.2449
▁껴서	-11.2451
▁올라와	-11.2451
편리	-11.2451
프레	-11.2451
이라며	-11.2453
으셔서	-11.2453
버릴	-11.2453
책을	-11.2457
▁각질부각	-11.2457
▁휠	-11.2458
진않아요	-11.2458
▁찢어	-11.2459
▁아이라인	-11.246
▁문지르	-11.246
▁멜	-11.246
▁진입	-11.2463
시험	-11.2463
▁쭈꾸미	-11.2465
▁애정	-11.2466
▁공중	-11.2467
▁하려구요	-11.2469
▁편함	-11.247
▁신의	-11.2471
▁센티	-11.2473
▁억제	-11.2473
▁짤	-11.2474
▁몇가지	-11.2474
미를	-11.2475
▁스킨을	-11.2477
▁한계	-11.2477
▁언더	-11.2484
▁사각	-11.2485
지는게	-11.2487
▁신기하게	-11.2487
즉	-11.2487
▁인민	-11.2487
▁덤으로	-11.2488
▁영화를	-11.249
▁가격저렴하고	-11.249
▁추워서	-11.249
▁구매하면	-11.2491
▁지고	-11.2493
▁스티커가	-11.2493
봤네요	-11.2493
▁내용물도	-11.2498
▁소득	-11.2498
▁있는듯	-11.2498
바닥에	-11.2498
▁목요일	-11.25
부인	-11.25
하였지만	-11.2504
발리	-11.2504
▁지난달	-11.2505
손이	-11.2506
▁지르	-11.2508
군에	-11.2508
▁모르겟	-11.251
▁명칭	-11.2511
▁배송되었어요	-11.2512
▁정책을	-11.2514
▁옆에서	-11.2514
▁버즈	-11.2516
그런가	-11.2516
▁월드	-11.2516
▁자신들의	-11.2516
▁퓨	-11.2517
▁초록색	-11.252
▁구매결정	-11.252
▁하진	-11.2523
▁수납공간이	-11.2523
▁원래쓰던	-11.2524
▁소재도	-11.2525
▁봐요	-11.2525
▁집은	-11.2527
▁봤지만	-11.2527
▁느낄수	-11.2527
▁폰을	-11.2528
▁흉터	-11.2528
▁알겠어요	-11.2529
▁샀지만	-11.253
▁해놓고	-11.2531
▁몫	-11.2532
▁촉촉함은	-11.2533
▁맡았다	-11.2535
벌써	-11.2536
▁만족함	-11.2539
▁대단	-11.254
▁담백한	-11.2541
▁일일이	-11.2542
류를	-11.2542
연히	-11.2543
주네요	-11.2543
▁플라	-11.2543
뽑	-11.2544
▁군인	-11.2545
▁냥이	-11.2545
▁이제서야	-11.2547
▁된거	-11.2547
▁개짜리	-11.2548
▁삶아	-11.2548
▁온다	-11.2549
▁몬	-11.255
▁없으나	-11.255
▁주니	-11.2551
▁년정도	-11.2551
▁쓰는제품	-11.2551
▁열기	-11.2553
▁기회에	-11.2554
▁이쁘다고	-11.2554
▁바라는	-11.2555
▁덕에	-11.2556
▁수동	-11.2556
▁무거워요	-11.2559
면은	-11.2561
▁입문	-11.2561
▁놀랐	-11.2562
바퀴	-11.2563
▁따져	-11.2563
▁클리어	-11.2564
▁커피맛	-11.2566
▁대책	-11.2567
조정	-11.2567
▁사용할께요	-11.2568
▁높아요	-11.2568
진다는	-11.2571
▁아일랜드	-11.2573
놔서	-11.2573
▁제의	-11.2574
▁출마	-11.2574
▁군데	-11.2575
▁감염	-11.2577
▁다이슨	-11.2577
두번째	-11.2577
▁저가	-11.2578
쇄	-11.2579
▁도와주	-11.2579
▁다루	-11.258
▁되었으며	-11.2581
▁비싸도	-11.2581
주었다	-11.2581
▁약하고	-11.2583
▁좋아질	-11.2585
았지만	-11.2586
▁호선	-11.2588
▁없고요	-11.2588
▁파티	-11.2588
▁맛으로	-11.2589
하더니	-11.2589
▁남편과	-11.259
하곤	-11.259
딜	-11.259
▁열었다	-11.2592
▁놀랍	-11.2592
▁그중	-11.2593
신경	-11.2594
▁빛을	-11.2595
▁신속	-11.2596
령을	-11.2597
▁어미	-11.2598
▁흡수되	-11.26
▁싫어해서	-11.2601
▁정원	-11.2603
▁숟가락	-11.2604
▁국내산	-11.2604
▁실망입니다	-11.2605
▁등록시	-11.2605
▁대장	-11.2606
화와	-11.2607
성도	-11.2607
만해도	-11.2607
▁바르지	-11.2609
해보여요	-11.2609
▁요번에	-11.2609
▁받아보	-11.2609
▁이끄는	-11.261
수납	-11.261
▁지나가	-11.261
카페	-11.261
▁넣었다	-11.2612
▁알지	-11.2613
▁잘했어요	-11.2616
▁사춘기	-11.2616
▁먹어보지	-11.2617
믹스	-11.2617
▁깨질	-11.2617
포인트	-11.2618
▁특가로	-11.2618
▁도중	-11.2621
▁수압	-11.2622
▁홍차	-11.2622
▁좋았다	-11.2623
▁깍	-11.2625
했나	-11.2627
▁아버님	-11.2627
▁되돌아	-11.2627
▁발생하는	-11.263
마음	-11.2631
▁밖	-11.2634
▁중에서도	-11.2635
▁마디	-11.2635
부문	-11.2635
▁문제점	-11.2635
빠르게	-11.2639
▁거라고	-11.2641
▁화사	-11.2641
▁있으므로	-11.2642
▁스며들고	-11.2642
했으니	-11.2643
▁설명을	-11.2644
경을	-11.2644
▁하였으나	-11.2644
관은	-11.2645
▁처음써보는데	-11.2645
▁아랫	-11.2645
▁휴가	-11.2646
▁네트워크	-11.2646
▁뭐라고	-11.2647
효과도	-11.2647
▁조립하는데	-11.2647
▁블랙으로	-11.2648
▁배를	-11.2652
▁해먹기	-11.2652
▁선생	-11.2653
▁가렵	-11.2654
▁지경	-11.2655
▁로지텍	-11.2657
▁필요없이	-11.2657
▁부동산	-11.2657
▁용서	-11.2657
▁가격이라	-11.2657
▁수준이	-11.266
▁고종	-11.266
▁웅	-11.2661
▁천황	-11.2661
▁보관하기	-11.2661
▁미국은	-11.2662
▁시를	-11.2663
개를	-11.2664
▁인조	-11.2666
이지요	-11.2669
스러웠	-11.267
▁박스도	-11.2672
▁국왕	-11.2673
▁거두	-11.2673
▁잘사용하겠습니다	-11.2673
장갑	-11.2674
▁합류	-11.2674
▁논란이	-11.2675
▁갠적으로	-11.2676
▁말린	-11.2676
▁해외배송	-11.2679
▁마법	-11.2679
했었다	-11.268
릅니다	-11.268
▁핸드폰을	-11.2681
▁불렀다	-11.2682
▁베어	-11.2684
수분크림	-11.2684
▁겪	-11.2685
▁밑으로	-11.2686
▁수비	-11.2689
코트	-11.269
▁수치	-11.2692
▁사줬어요	-11.2693
▁유아	-11.2694
▁남편이랑	-11.2695
▁두개나	-11.2695
연한	-11.2695
▁기분도	-11.2696
▁구매예요	-11.2696
▁즐거운	-11.2697
▁레이스	-11.2698
▁로션을	-11.27
▁어느새	-11.27
▁튀기	-11.2703
▁공작	-11.2704
▁오스트리아	-11.2705
하셨어요	-11.2706
▁위반	-11.2706
일에	-11.2709
▁해야겠어요	-11.271
▁올릴	-11.2711
▁생겼어요	-11.2711
▁부서지	-11.2713
▁하셨는데	-11.2713
▁협의	-11.2713
▁쓰세요	-11.2714
▁보내드렸어요	-11.2715
▁목소리가	-11.2715
▁급한	-11.2716
▁부시	-11.2716
▁느끼게	-11.2717
▁공구	-11.2717
▁다섯개	-11.2718
아야	-11.2719
▁푹신한	-11.2719
기존	-11.2723
▁좋지는	-11.2724
▁부모님께서	-11.2725
▁북한의	-11.2727
▁국가대표팀	-11.273
▁다녔	-11.2731
▁가위	-11.2731
▁드러	-11.2733
▁상큼하고	-11.2733
▁괜찮은것같아요	-11.2734
▁당뇨	-11.2735
▁불안한	-11.2736
▁배송감사합니다	-11.2736
▁피코크	-11.2738
▁하느님	-11.2738
▁잡아줘서	-11.274
▁베란다에	-11.274
생기	-11.2741
▁소문이	-11.2742
▁대용량에	-11.2743
▁더욱더	-11.2745
▁작동이	-11.2745
▁덜어서	-11.2745
▁샤오미	-11.2746
▁가려지	-11.2747
▁얼룩이	-11.2747
▁코스	-11.2749
양을	-11.2749
▁자체를	-11.275
▁기부	-11.2752
▁화장지	-11.2752
방향	-11.2753
▁순식간에	-11.2754
▁깨어	-11.2754
▁아플	-11.2755
▁개시	-11.2755
▁볶음	-11.2755
룰	-11.2756
않았어요	-11.2757
▁비교하면	-11.2758
▁감상	-11.2758
남자	-11.2761
▁목사	-11.2762
업을	-11.2765
▁해주면	-11.2767
▁구매했던	-11.2768
좀더	-11.2768
▁정신적	-11.2769
▁낭비	-11.2769
▁스무	-11.2769
▁확립	-11.277
▁전신	-11.277
▁듀	-11.2772
▁어렵게	-11.2772
▁삼아	-11.2773
▁축제	-11.2773
▁일간	-11.2776
▁질병	-11.2776
▁작곡	-11.2777
놓을	-11.2777
▁안개	-11.2777
▁쎈	-11.2778
▁어떤지	-11.2778
▁식구들이	-11.2778
▁알맞은	-11.2779
▁서부	-11.278
▁잘돼요	-11.278
였으면	-11.2782
▁음량	-11.2783
▁민감해서	-11.2783
▁심심	-11.2784
▁골랐는데	-11.2785
▁수정화장	-11.2786
▁손편지	-11.2787
▁밀림	-11.2789
▁그렇습니다	-11.279
라구요	-11.2792
▁담긴	-11.2793
▁신어	-11.2794
▁갈때	-11.2796
▁어찌나	-11.2796
▁커튼	-11.2796
▁먹기에도	-11.2798
▁베르	-11.2798
▁스킨케어	-11.2798
▁멘	-11.28
▁맛이예요	-11.2801
▁구석구석	-11.2803
▁끈적이는	-11.2806
▁간주	-11.2807
▁걸고	-11.2808
▁증상이	-11.2809
껴	-11.281
▁때로는	-11.281
으시면	-11.2811
▁벽지	-11.2811
티브	-11.2813
이신	-11.2813
들었다	-11.2814
▁기미가	-11.2817
▁걱정도	-11.2818
위로	-11.2818
량은	-11.2818
▁오래가서	-11.2819
▁스포이드	-11.2819
케이블	-11.2821
▁가사	-11.2821
▁후라이팬	-11.2824
찜	-11.2829
▁기대한	-11.2829
뒷	-11.2829
▁문화의	-11.2829
▁신축성	-11.283
▁잊고	-11.2831
▁후라이팬에	-11.2832
▁이해할	-11.2832
▁스테이크	-11.2833
▁하다보니	-11.2834
▁덜해요	-11.2835
▁넘겨	-11.2836
▁퀄리티도	-11.2837
클렌징	-11.2837
푸드	-11.2838
▁좋아보여요	-11.2838
▁창고	-11.2839
론은	-11.2841
▁아끼	-11.2841
원에서	-11.2841
▁응용	-11.2841
▁대학생	-11.2842
스럽네요	-11.2843
▁우연	-11.2843
▁이모	-11.2843
▁숨어	-11.2843
▁노릇	-11.2845
▁살인	-11.2845
▁유용	-11.2846
지구	-11.2846
▁드세요	-11.2846
▁넣어야	-11.2848
걱	-11.2849
▁별도	-11.2849
▁준비해	-11.285
▁길이감	-11.2851
▁공격을	-11.2852
사이즈도	-11.2852
▁토끼	-11.2854
▁흡착	-11.2854
간단	-11.2854
해온	-11.2855
▁바보	-11.2858
▁숱	-11.2858
▁아래에	-11.2861
팁	-11.2861
▁밝게	-11.2861
▁배송상태도	-11.2862
▁메모	-11.2864
▁새거	-11.2864
▁귀족	-11.2864
가득	-11.2865
반찬	-11.2865
▁흔	-11.2866
▁균형	-11.2866
▁눈밑	-11.2867
▁돈까스	-11.2868
▁조심해야	-11.287
▁일주일만에	-11.287
▁역대	-11.2871
▁앉아있	-11.2871
▁예쁘다고	-11.2875
▁뻑뻑하	-11.2875
▁양국	-11.2876
▁소화가	-11.2876
해진다	-11.2876
▁글이	-11.2877
▁사양	-11.2878
▁내구성은	-11.2878
▁단자	-11.2878
▁안녕	-11.2881
▁인종	-11.2882
▁선물용으로도	-11.2882
▁내각	-11.2884
케이	-11.2887
었다고	-11.2887
▁절대로	-11.2888
▁개편	-11.2889
▁위원회	-11.289
▁느껴지고	-11.289
지더라구요	-11.2892
▁찐득	-11.2894
▁질량	-11.2895
▁버리기	-11.2896
▁곤약	-11.2897
하네용	-11.2897
▁설치하기	-11.2897
▁푸짐	-11.2897
▁양많고	-11.2898
우니	-11.2899
▁편리함	-11.29
▁당일배송	-11.2901
가죽	-11.2901
▁하자없이	-11.2901
지않을까	-11.2901
▁노이즈	-11.2903
▁땅을	-11.2904
▁있으면서	-11.2904
▁번들거림	-11.2905
▁알코올	-11.291
예술	-11.291
보세요	-11.291
됐습니다	-11.2912
▁짬뽕	-11.2913
▁제국의	-11.2913
▁성격을	-11.2915
▁끊기	-11.2917
▁새서	-11.2919
주름	-11.2919
▁물기가	-11.292
▁줄기	-11.2921
▁젖은	-11.2921
유통기한도	-11.2922
망이	-11.2923
티슈	-11.2923
▁과정이	-11.2926
▁정작	-11.2926
진거	-11.2926
▁랜덤	-11.2926
김에	-11.2928
▁목넘김이	-11.2929
백화점	-11.2929
▁옥션	-11.2929
▁밟	-11.2929
▁잃	-11.293
▁거품은	-11.2931
▁꾸덕한	-11.2931
▁욕망	-11.2931
▁올립니다	-11.2931
▁스킨이	-11.2931
▁근본	-11.2932
▁잘해주셔서	-11.2934
▁자연의	-11.2935
▁분포	-11.2936
▁영웅	-11.2938
률이	-11.2939
▁너무맛있어요	-11.2939
▁뿌렸	-11.2939
▁뭍	-11.2939
루스	-11.294
▁각자	-11.2941
▁않나	-11.2941
▁양자	-11.2942
▁별로였어요	-11.2942
▁딱맞	-11.2943
▁일어나고	-11.2944
▁부피	-11.2945
▁들어온	-11.2946
▁패턴	-11.2946
▁이성	-11.2947
▁포근	-11.2949
▁토너를	-11.295
▁발등	-11.295
▁기한	-11.2953
▁세통째	-11.2954
▁소식을	-11.2954
▁권장	-11.2954
▁청구	-11.2955
▁부위에	-11.2956
▁불편해	-11.2958
▁싫어하는데	-11.2958
로즈	-11.2958
팡	-11.2958
▁두개씩	-11.296
다네요	-11.2961
▁설득	-11.2961
▁한마디로	-11.2961
▁새해	-11.2963
워낙	-11.2964
돌이	-11.2965
▁로션은	-11.2965
▁건조한데	-11.2966
▁문득	-11.2966
▁유독	-11.2967
▁합병	-11.2969
되니까	-11.2969
▁아니라는	-11.2969
믿	-11.2972
▁들기	-11.2973
▁아까워서	-11.2974
▁경험을	-11.2975
웠어요	-11.2975
▁원료	-11.2975
▁제조일	-11.2976
▁시작한다	-11.2977
▁없어지는	-11.2977
▁리뷰에	-11.2978
▁외출시	-11.2978
▁멸치	-11.2979
▁오기	-11.2981
▁역사의	-11.2982
▁부담없고	-11.2983
▁스님	-11.2984
▁화사한	-11.2985
자로서	-11.2987
▁먹다보면	-11.2988
▁쌓여	-11.2988
▁텁텁	-11.2988
마루	-11.2989
▁가장자리	-11.2989
▁국어	-11.299
▁에서는	-11.299
▁스킨팩	-11.2991
▁샴푸는	-11.2991
▁요리에	-11.2991
▁다시는	-11.2992
▁올려놓고	-11.2992
▁국정	-11.2992
▁스위스	-11.2993
▁칼칼	-11.2994
겉	-11.2995
왔지만	-11.2996
▁번짐	-11.2997
▁전설	-11.2997
▁구수	-11.2998
▁요시	-11.3
▁올라오고	-11.3
▁요즘같은	-11.3001
▁보라	-11.3002
▁나타내	-11.3003
▁수납공간	-11.3007
▁남긴	-11.3008
부대	-11.3008
▁버티	-11.3008
되었다고	-11.3009
골드	-11.301
▁네번째	-11.3011
▁바르자마자	-11.3012
▁강요	-11.3013
대용량	-11.3013
▁주부	-11.3013
▁주위에서	-11.3014
▁스크린	-11.3014
지와	-11.3014
▁셋트	-11.3017
쿠팡	-11.3018
▁계절에	-11.302
▁집행	-11.3022
▁간편합니다	-11.3023
▁적도	-11.3023
▁유지되	-11.3023
▁경험이	-11.3025
▁무튼	-11.3026
▁헹구	-11.3026
▁그곳	-11.3027
▁모든게	-11.3027
▁개통	-11.3029
▁튀어	-11.303
▁가르치	-11.3031
▁만족하네요	-11.3032
▁귀엽	-11.3032
문에	-11.3036
▁대접	-11.3036
▁지났는데	-11.3037
▁대고	-11.3037
▁크림도	-11.3039
▁세안하고	-11.3041
▁과학적	-11.3041
▁건조해지는	-11.3042
방이	-11.3043
롭게	-11.3044
▁일본군	-11.3044
우기	-11.3044
들한테	-11.3045
▁생각나는	-11.3047
▁보시	-11.3048
▁토너는	-11.3048
▁트러블없이	-11.3049
▁좋을텐데	-11.3051
▁있을때	-11.3052
회가	-11.3052
▁물려	-11.3052
▁근처에	-11.3053
드로	-11.3054
▁후로	-11.3055
뒤로	-11.3055
▁마셔도	-11.3055
▁시작된	-11.3056
▁돌아와	-11.3058
▁구매하면서	-11.3059
▁쓱쓱	-11.306
▁따뜻하	-11.306
▁페이	-11.3062
국에	-11.3062
▁좁쌀이	-11.3063
▁세균	-11.3063
▁통계	-11.3065
이불	-11.3066
▁겨울철에	-11.3068
▁닦아내	-11.3069
이냐	-11.3069
▁진정효과	-11.307
▁크긴	-11.3071
고등학교	-11.3071
▁되었으면	-11.3071
▁제로이드	-11.3072
▁구비	-11.3073
▁사용하시는	-11.3073
유리	-11.3074
키가	-11.3076
선으로	-11.3076
▁영감	-11.3077
▁고객님들에게	-11.3077
넣어서	-11.3078
하네	-11.3083
▁크면	-11.3084
▁위원장	-11.3084
▁지금의	-11.3085
떄	-11.3085
▁리모콘	-11.3085
▁가능성을	-11.3085
세용	-11.3086
▁웨	-11.3087
▁이틀째	-11.309
▁풀려	-11.309
▁적네요	-11.3092
▁이전의	-11.3093
▁안나네요	-11.3095
좋으네요	-11.3096
▁휴대성	-11.3096
▁편이라서	-11.3097
▁하신	-11.3097
▁아픔	-11.3099
길이가	-11.31
▁찾던중	-11.31
발림성	-11.3102
▁짧게	-11.3102
▁작은사이즈	-11.3104
▁공산당	-11.3105
▁장수	-11.3106
▁호는	-11.3107
▁뚫	-11.3107
밤에	-11.3107
▁재구매는	-11.3108
▁결과가	-11.3109
▁주시는	-11.3109
▁든다고	-11.311
▁냥이가	-11.3111
▁된장	-11.3112
▁이고	-11.3113
▁멋진	-11.3114
▁화면에	-11.3121
▁듬	-11.3125
▁충실한	-11.3125
코드	-11.3125
▁칼로	-11.3126
▁이거쓰고	-11.3128
▁학생들이	-11.3131
빠릅니다	-11.3131
▁않는다고	-11.3133
▁높습니다	-11.3133
▁안와서	-11.3133
▁신선하게	-11.3136
▁조아용	-11.3137
▁중이라	-11.3138
▁달라지	-11.3138
▁풍부하고	-11.3138
걸리	-11.3139
▁구매하네요	-11.314
▁묻는	-11.3143
▁발가락	-11.3144
▁하거나	-11.3144
변화	-11.3146
▁도착하자마자	-11.3146
▁수백	-11.3147
▁대항	-11.3148
▁사자	-11.3148
▁증권	-11.3149
▁보관도	-11.3149
됐고	-11.315
▁맛나서	-11.3151
책상	-11.3151
금이	-11.3155
동에	-11.3156
▁노력을	-11.3156
▁오래쓰	-11.3157
▁났어요	-11.3157
▁세금	-11.3159
▁자아	-11.3161
▁뭉침	-11.3162
▁짚	-11.3163
▁열흘	-11.3163
제조일자	-11.3165
▁두꺼워	-11.3167
사라	-11.3167
▁유자	-11.3169
▁너무마음에듭니다	-11.3171
▁할지	-11.3171
하는지	-11.3173
▁들어왔다	-11.3175
수와	-11.3177
오던	-11.3179
▁시의	-11.3179
▁엉	-11.3181
▁유격	-11.3182
했어용	-11.3185
줄알고	-11.3185
▁디자인이나	-11.3186
▁바르려고	-11.3187
▁끼는	-11.3188
▁허락	-11.3189
▁요걸로	-11.319
▁도서관	-11.3191
▁어쩌다	-11.3191
있지	-11.3191
▁안고	-11.3192
▁액상	-11.3193
▁끈적이	-11.3193
▁선택이	-11.3194
양은	-11.3195
▁숭	-11.3197
▁타이틀	-11.3197
▁붉은기	-11.3197
▁해당하는	-11.3198
▁넌	-11.3198
▁유효기간	-11.32
▁견디	-11.32
▁비슷해서	-11.3201
▁베지밀	-11.3204
▁나가기	-11.3204
▁인스타	-11.3204
합니까	-11.3205
▁좋아하시	-11.3207
문자	-11.3207
▁설치했는데	-11.3208
▁곧바로	-11.3208
▁고민중	-11.3208
게임	-11.3212
거울	-11.3214
▁페이지	-11.3214
▁쿠폰써서	-11.3214
▁간에	-11.3214
▁하구	-11.3215
▁선호하는	-11.3215
▁가슴을	-11.3215
▁날에	-11.3219
비아	-11.322
품이	-11.322
▁클렌징폼	-11.3222
▁미국과	-11.3223
이랍니다	-11.3224
본다	-11.3224
▁피치	-11.3225
내서	-11.3227
▁잊지	-11.3228
▁움직일	-11.3229
▁분위기를	-11.3229
▁다른걸로	-11.323
▁사는거	-11.323
▁각국	-11.3231
하셔도	-11.3232
첫	-11.3232
가볍고	-11.3233
중앙	-11.3233
▁흔한	-11.3235
뒀	-11.3236
▁부리	-11.3236
실을	-11.3236
▁이끌어	-11.3237
됫	-11.3238
▁구매시	-11.3238
▁긁어	-11.3239
▁다써서	-11.324
▁이라서	-11.3241
▁받아야	-11.3242
주셔야	-11.3242
▁알갱이	-11.3244
▁없어졌	-11.3244
▁푸짐하고	-11.3244
군과	-11.3244
▁방석	-11.3244
블루	-11.3244
▁먹고싶	-11.3245
▁페이스	-11.3246
▁오랫만에	-11.3246
▁묻은	-11.3247
▁그래두	-11.3253
조의	-11.3253
▁안해봤지만	-11.3254
실수	-11.3255
▁선택했습니다	-11.3255
▁둘이서	-11.3257
안이	-11.3258
당이	-11.326
테이프	-11.3261
▁중국에서	-11.3262
▁책은	-11.3263
먹습니다	-11.3264
▁침묵	-11.3264
▁눈물이	-11.3265
법의	-11.3265
▁맘에들	-11.3265
▁김정	-11.3266
▁편안해	-11.3268
▁율	-11.3269
마이	-11.327
옆	-11.3271
▁대문	-11.3272
▁맞추어	-11.3272
▁적립대상에서	-11.3272
▁친환경	-11.3273
▁지성이라	-11.3274
▁설치를	-11.3274
▁바꿔봤어요	-11.3274
▁치수	-11.3276
왔던	-11.3277
▁차이나	-11.3277
입니	-11.3278
▁완충	-11.3279
▁위장	-11.328
▁돌고	-11.328
▁뭐랄까	-11.3281
▁찾고있었는데	-11.3282
▁선비	-11.3282
▁써보니까	-11.3284
▁전제	-11.3285
▁재구매에요	-11.3287
▁피부트러블	-11.3287
▁예상했던	-11.3288
▁밀착되	-11.329
▁심해요	-11.329
▁선물도	-11.329
한건지	-11.3292
▁코가	-11.3293
▁생각했던것	-11.3294
▁안되어서	-11.3296
▁인스턴트	-11.3298
▁굳어	-11.3298
드를	-11.3299
조건	-11.3299
▁벌어진	-11.33
▁담엔	-11.3301
학년	-11.3301
▁계약을	-11.3301
인들	-11.3302
▁한쪽이	-11.3302
아무	-11.3304
▁살펴	-11.3305
▁분홍색	-11.3305
드려요	-11.3306
▁신축성이	-11.3308
▁물론이고	-11.3308
▁관념	-11.3309
프트	-11.331
했었	-11.3311
상품입니다	-11.3312
▁바위	-11.3312
▁팔레트	-11.3315
▁성과	-11.3315
▁급해서	-11.3315
▁나란히	-11.3315
▁힘들게	-11.3315
▁뿌리는	-11.3316
전문	-11.3317
▁붙잡	-11.3317
얘	-11.3318
▁울산	-11.3318
▁나더라구요	-11.3318
▁활성화	-11.3318
▁수분을	-11.3319
▁써봤어요	-11.3321
▁필요로	-11.3321
▁연결하는	-11.3321
▁분무	-11.3322
할수있	-11.3323
▁비듬	-11.3327
▁늦었네요	-11.3328
고정	-11.3328
▁매장보다	-11.3329
▁정사이즈로	-11.3329
▁해봐야	-11.3329
송이	-11.3332
▁까다로운	-11.3332
▁씌우	-11.3333
▁수단	-11.3333
▁올라서	-11.3333
▁필요할때	-11.3333
▁볼수	-11.3336
▁구입해봤는데	-11.3336
데서	-11.3338
▁수유	-11.3339
치료	-11.3341
기본	-11.3341
▁신랑이랑	-11.3346
▁빨갛게	-11.3346
▁담은	-11.3346
들여	-11.3347
중국	-11.3349
덩	-11.3349
▁청소가	-11.3349
▁키워	-11.335
사용하기	-11.335
▁연락을	-11.335
▁띄는	-11.3351
을때는	-11.3351
두께	-11.3352
▁사용해보지	-11.3352
▁문이	-11.3353
▁잡채	-11.3356
▁잡히	-11.3356
▁정장	-11.3356
▁받쳐	-11.3357
뜯어	-11.3358
▁나면서	-11.3362
저렴해서	-11.3363
▁세련된	-11.3363
▁큰일	-11.3365
▁폴리	-11.3365
햐	-11.3367
▁미치	-11.3367
▁탄산음료	-11.3367
▁화장실에	-11.3368
▁나은듯	-11.3369
▁잠들	-11.3369
▁정기	-11.3369
▁면도기	-11.337
▁배터리가	-11.3371
▁불고기	-11.3371
▁녹았	-11.3373
▁역임	-11.3374
▁미디어	-11.3374
▁필리핀	-11.3376
▁알겠네요	-11.3377
걸루	-11.3379
▁시어머니	-11.338
꿈	-11.338
▁전통적인	-11.3381
▁재고가	-11.3381
▁세팅	-11.3382
▁한창	-11.3382
싸서	-11.3383
▁안하는	-11.3383
▁미세한	-11.3384
▁결국은	-11.3385
것들	-11.3386
▁순두부	-11.3386
▁접착력	-11.3386
▁사용되는	-11.3387
▁할까요	-11.3388
▁이외에	-11.3388
▁순한맛	-11.3389
전은	-11.339
▁먹고있는	-11.339
앞으로도	-11.3391
▁썻	-11.3392
엇어요	-11.3392
▁묻고	-11.3393
▁겟잇뷰티	-11.3393
게용	-11.3393
해봐야	-11.3396
▁너무너무너무	-11.3397
▁도움되	-11.3398
▁많다고	-11.3398
▁눈물을	-11.34
▁냉장보관	-11.3402
▁비염	-11.3402
있더라구요	-11.3403
▁매워요	-11.3403
하기를	-11.3403
안되	-11.3404
가능한	-11.3404
있는게	-11.3404
▁읽는	-11.3404
▁재질이라	-11.3405
곰	-11.3406
▁이끌고	-11.3407
▁처음이네요	-11.3409
▁경비실에	-11.3409
▁없어져서	-11.341
분도	-11.341
쁘	-11.3411
▁손해	-11.3412
▁결론은	-11.3413
한테도	-11.3413
▁사회에서	-11.3413
▁벌어	-11.3414
▁차지하는	-11.3416
▁끓	-11.3417
하의	-11.3417
쿠키	-11.3418
많아	-11.3419
▁라서	-11.342
린다고	-11.342
▁기능에	-11.3421
▁무향이라	-11.3423
▁유발	-11.3424
▁갈비	-11.3424
국수	-11.3425
▁그러지	-11.3427
▁기술을	-11.3427
타입이라	-11.3428
신랑	-11.3431
조합	-11.3432
받침	-11.3432
▁뱃살	-11.3433
음질	-11.3433
포함	-11.3435
▁귀여워서	-11.3436
킷	-11.3436
▁기다렸는데	-11.3437
▁캔디	-11.3437
▁보습감	-11.3437
▁갔다가	-11.3438
▁중요하	-11.3438
▁왔다갔다	-11.3438
▁잘모르겠지만	-11.3438
▁말하기	-11.344
▁알것	-11.344
▁끄	-11.3441
▁구원	-11.3441
애기	-11.3448
▁배제	-11.3448
▁묵직한	-11.3451
▁이외	-11.3451
아이들이	-11.3451
▁죽음을	-11.3453
▁스트랩	-11.3456
▁들었고	-11.3456
▁음영	-11.3457
▁창작	-11.3457
▁년월	-11.3457
▁구매하던	-11.3457
▁높았	-11.3458
▁컬링	-11.3459
▁없었지만	-11.3459
▁단점이라면	-11.346
▁세웠다	-11.346
▁젖병	-11.3461
▁폭신폭신	-11.3463
▁좋진	-11.3463
반응	-11.3465
내내	-11.3466
▁재구매하겠습니다	-11.3467
줬더니	-11.3467
해지네요	-11.3468
리와	-11.3468
하이	-11.347
▁망설였는데	-11.347
▁밀크	-11.347
▁정도에요	-11.3472
▁최고죠	-11.3473
▁살까말까	-11.3473
▁떠난	-11.3473
▁잡을	-11.3475
▁안보	-11.3476
▁충분합니다	-11.3476
▁앞으로는	-11.3479
▁했다는	-11.3482
▁밤새	-11.3483
입기	-11.3484
▁영입	-11.3487
▁내어	-11.3487
▁아름답	-11.3489
당은	-11.3489
▁힘으로	-11.349
지않네요	-11.349
▁반응을	-11.349
결정	-11.3491
▁있는건	-11.3492
▁맛있어여	-11.3493
▁조용히	-11.3494
없지만	-11.3494
▁필요도	-11.3495
▁집에서도	-11.3497
▁표정	-11.3497
렇	-11.3502
▁힐	-11.3503
부분을	-11.3503
▁잼	-11.3506
▁늑대	-11.3507
▁살리	-11.3508
▁결혼식	-11.351
▁끊임없이	-11.3511
▁열려	-11.3512
▁견고한	-11.3513
▁알겠	-11.3514
▁비극	-11.3515
▁가죽이	-11.3515
▁백성	-11.3516
클리	-11.3517
간장	-11.3517
거니	-11.3518
합니	-11.3518
스코	-11.3519
▁볶아	-11.3524
▁푸석푸석	-11.3524
▁시트지	-11.3525
▁들뜨	-11.3525
▁사은품은	-11.3526
▁정기적으로	-11.3527
▁입단	-11.3528
▁먹을만합니다	-11.3528
▁처녀	-11.3529
▁관리를	-11.3532
▁의미에서	-11.3532
▁기분은	-11.3533
▁따지	-11.3533
▁무너지	-11.3533
▁심리	-11.3534
퀄리티	-11.3534
▁보증	-11.3535
▁정신이	-11.3535
▁건성피부	-11.3537
작아서	-11.3539
▁구매의사	-11.354
▁빼서	-11.354
▁안먹는	-11.354
▁발표한	-11.3541
▁가치를	-11.3541
▁싶지만	-11.3541
관계를	-11.3542
▁감도	-11.3544
▁넓이	-11.3545
시즌	-11.3545
▁약하게	-11.3545
▁살게요	-11.3545
▁박스는	-11.3546
▁금이	-11.3546
▁못했습니다	-11.3546
▁코스트코	-11.3548
▁필자	-11.355
▁나만	-11.355
▁골목	-11.355
▁안성맞춤	-11.3551
▁받았을때	-11.3551
▁추천받고	-11.3551
▁일차	-11.3551
▁샘플써보고	-11.3554
▁아시죠	-11.3554
겠습니까	-11.3554
오니	-11.3554
색이라	-11.3555
▁오토	-11.3556
▁흑인	-11.3557
▁맞는것	-11.3557
신기	-11.3558
▁보드	-11.3558
▁구형	-11.3559
▁녹고	-11.3559
부로	-11.3561
▁반해	-11.3561
▁마치고	-11.3564
▁잡음	-11.3565
▁선택할	-11.3565
▁참조	-11.3567
▁녹이	-11.3567
▁귀신	-11.3567
▁감당	-11.357
▁배송받고	-11.357
▁뽀득뽀득	-11.3571
안나	-11.3573
▁많으	-11.3574
▁은하	-11.3574
▁지워지는	-11.3574
산을	-11.3574
▁신랑도	-11.3575
▁가라	-11.3575
▁앙증맞	-11.3577
▁버블	-11.3579
▁그들을	-11.358
▁통보	-11.358
▁쓰던것	-11.3581
▁몰래	-11.3581
▁왕만두	-11.3583
▁소량으로	-11.3583
▁주간	-11.3584
더라면	-11.3584
▁아닙니까	-11.3586
▁관리가	-11.3592
▁편하다	-11.3592
▁이르기까지	-11.3595
하지않아서	-11.3596
▁끼우	-11.3596
▁어깨가	-11.3597
벼	-11.3598
기존에	-11.3599
▁상태에	-11.3599
▁그리스도	-11.36
눌	-11.36
드렸	-11.3601
▁애용할	-11.3602
▁단정	-11.3602
▁감사하고	-11.3602
▁촉촉한데	-11.3602
▁어렵고	-11.3602
피스	-11.3603
▁타격	-11.3605
▁원했던	-11.3606
▁플레인	-11.3606
▁망설이	-11.3607
▁있었을	-11.3607
▁안됨	-11.3608
▁선고	-11.3609
▁반사	-11.361
▁우드	-11.361
▁탈락	-11.361
▁남자들	-11.3611
▁매실	-11.3611
눈데	-11.3611
국을	-11.3611
▁베이	-11.3612
▁킬로	-11.3615
▁밝아서	-11.3616
▁사유	-11.3617
▁단으로	-11.3618
▁한강	-11.3622
▁선명하고	-11.3623
▁양상	-11.3623
▁누리	-11.3624
▁라인이	-11.3624
▁경비	-11.3624
▁뭉치	-11.3626
▁잠재	-11.3626
막이	-11.3626
전기	-11.3626
약한	-11.3628
발송	-11.3629
햇습니다	-11.363
▁윌리엄	-11.363
▁자체에	-11.3631
▁한개는	-11.3632
룬	-11.3632
▁교환신청	-11.3632
▁유수분	-11.3634
▁조상	-11.3634
▁바구니	-11.3634
▁법원	-11.3635
▁수염	-11.3636
잘먹	-11.3637
하기엔	-11.3638
인건지	-11.3638
▁워낙에	-11.3639
▁지인들에게	-11.364
▁추출	-11.364
부턴	-11.3642
스에	-11.3644
▁뿌려서	-11.3645
푼	-11.3647
용도	-11.3648
▁울리	-11.365
▁다른것도	-11.3651
보가	-11.3651
리스트	-11.3652
았고	-11.3652
▁같았	-11.3654
▁제품들이	-11.3656
▁뒤쪽	-11.3656
수있어요	-11.3656
▁써봅니다	-11.3656
▁좋아요좋아요	-11.3657
▁기계식	-11.3657
안전	-11.3657
▁묽어서	-11.3657
은거	-11.3658
▁틀리	-11.3659
장점	-11.366
놓았	-11.366
연맹	-11.3661
▁대학의	-11.3662
▁붙고	-11.3663
앉	-11.3663
해달라고	-11.3663
▁글쎄	-11.3664
철이	-11.3666
볶음	-11.3666
▁초보자	-11.3666
▁구조를	-11.3667
▁탁월	-11.3667
▁새상품	-11.3667
▁미세하게	-11.3669
▁마시니	-11.367
▁옷감	-11.3671
보구	-11.3671
궐	-11.3674
▁사람으로	-11.3675
날이	-11.3675
▁톤업크림	-11.3677
▁거짓	-11.368
없는데	-11.3681
관의	-11.3682
▁전사	-11.3682
▁배송기사님도	-11.3683
작동	-11.3684
▁빼앗	-11.3686
▁없을때	-11.3688
▁인연	-11.3688
▁얼마전	-11.3689
낫	-11.3689
인에게	-11.3691
실때	-11.3691
▁토너로	-11.3692
▁마르고	-11.3695
▁알아보다	-11.3695
▁뻑뻑해서	-11.3696
▁구매한지	-11.3696
▁되어야	-11.3697
▁식구	-11.3697
매장	-11.3697
▁미끌거리	-11.3699
▁빌리프	-11.3699
줄알았	-11.3699
▁너무이뻐요	-11.37
▁개체	-11.3701
가격은	-11.3701
▁점수	-11.3701
▁햇는데	-11.3702
▁찍어서	-11.3703
▁떡이	-11.3704
▁산거같아요	-11.3705
▁히알루론산	-11.3706
▁좋아했어요	-11.3706
▁역사상	-11.3707
이면서	-11.3707
동의	-11.3708
받앗	-11.3708
▁바뀌었	-11.371
▁무언가	-11.3711
▁초래	-11.3711
▁마냥	-11.3712
적당	-11.3713
▁김영	-11.3717
▁웨이브	-11.3719
▁기업의	-11.3719
▁미사일	-11.372
봣어요	-11.3724
료를	-11.3725
집을	-11.3725
엠	-11.3725
▁잔향이	-11.3726
▁되겠	-11.3727
▁또다른	-11.373
▁겉은	-11.3731
▁흥미	-11.3731
▁깔끔히	-11.3732
▁용기에	-11.3733
▁모델이	-11.3733
▁분열	-11.3734
▁싶었다	-11.3735
▁휴대하기도	-11.3735
보려구요	-11.3735
▁비롯	-11.3736
▁끓는	-11.3737
▁예쁨	-11.3738
▁유사한	-11.374
차이가	-11.3741
▁만다	-11.3743
기기	-11.3743
▁승부	-11.3745
▁감성	-11.3745
류의	-11.3745
▁바꾸는	-11.3746
▁달콤하고	-11.3746
▁손님들	-11.3747
토록	-11.3747
하시기	-11.3747
▁답답한	-11.3748
다는거	-11.3748
▁맛있으면	-11.3749
▁패션	-11.375
▁신상	-11.3751
쏘	-11.3752
싸이즈	-11.3753
▁신비	-11.3755
▁쨍한	-11.3755
▁시끄럽	-11.3756
▁들고요	-11.3756
▁기대는	-11.3756
▁장을	-11.3756
▁기다렸	-11.3758
▁아쉬웠습니다	-11.3759
▁유니	-11.376
▁번의	-11.3761
댕	-11.3761
바르는	-11.3762
씌	-11.3763
▁정복	-11.3764
▁감아	-11.3767
▁나이트	-11.3767
▁오래걸리	-11.3768
▁원소	-11.3768
▁제사	-11.377
▁지진	-11.3771
▁의자를	-11.3771
▁도톰해서	-11.3772
▁공감	-11.3773
▁베개	-11.3774
▁되어있는	-11.3774
시민	-11.3774
▁있으	-11.3775
스에서	-11.3776
▁끈이	-11.3777
▁퓨어	-11.3778
▁복원	-11.3779
▁안맞네요	-11.3781
▁보세요	-11.3781
갈색	-11.3781
▁높게	-11.3783
▁단축	-11.3784
▁자극적인	-11.3784
였으나	-11.3785
▁정신을	-11.3786
봐야겠어요	-11.3786
초코	-11.3786
▁부패	-11.3787
병에	-11.3788
했었어요	-11.379
던거라	-11.379
▁거리를	-11.3791
▁그리기	-11.3795
▁된다면	-11.3797
님들	-11.3801
시계	-11.3801
양념	-11.3802
▁안지워지	-11.3803
▁발라보고	-11.3803
▁갯수	-11.3804
▁치르	-11.3805
크네요	-11.3806
▁방침	-11.3806
▁기후	-11.3808
▁서비스를	-11.3808
▁후면	-11.381
어는	-11.381
▁예정이에요	-11.3811
▁요기	-11.3812
▁편이지만	-11.3813
▁줬어요	-11.3814
▁받으면	-11.3816
▁시식	-11.3816
▁든든하네요	-11.3816
▁듬뿍듬뿍	-11.3819
▁났다	-11.3819
▁두세번	-11.3821
▁이가격	-11.3821
뚝	-11.3821
외에	-11.3821
▁어릴	-11.3821
▁묶어	-11.3821
그램	-11.3822
▁의자에	-11.3822
▁복지	-11.3822
빨라서	-11.3823
▁뭉쳐	-11.3823
현상이	-11.3824
하던데	-11.3824
운동을	-11.3824
▁말씀을	-11.3825
▁색상과	-11.3826
거렸다	-11.3827
냉면	-11.3827
탬	-11.3828
▁글리터	-11.3828
▁발견하고	-11.3829
▁더러워	-11.383
옆에	-11.3831
올때	-11.3832
진은	-11.3833
자니	-11.3835
▁두말할	-11.3835
▁한방	-11.3835
▁가정에서	-11.3836
▁김씨	-11.3837
▁기포가	-11.384
▁사리	-11.3841
단에	-11.3844
▁내에	-11.3846
▁아울러	-11.3846
▁발전을	-11.3846
▁짐승	-11.3847
▁시사	-11.3848
달아	-11.3849
▁줄어드는	-11.385
▁배송와서	-11.3851
▁필터가	-11.3851
▁작동합니다	-11.3852
▁이뤄	-11.3852
펠	-11.3852
▁궤도	-11.3853
해보여서	-11.3853
▁두루	-11.3854
▁이득	-11.3854
▁그러면서	-11.3854
▁기숙사	-11.3855
▁독특	-11.3856
쇼핑	-11.3859
▁극찬	-11.386
바꾸	-11.386
▁양호합니다	-11.3861
▁상쾌한	-11.3864
▁선명하게	-11.387
▁끓이면	-11.3871
▁자체도	-11.3871
▁셀카봉	-11.3873
▁비싸지	-11.3874
▁공을	-11.3876
▁세우	-11.3877
해집니다	-11.3878
되었을	-11.3878
해준	-11.388
사이즈는	-11.3881
▁득	-11.3883
어지고	-11.3885
▁설탕이	-11.3885
▁감추	-11.3886
▁서명	-11.3887
▁나쁘	-11.3887
물은	-11.3888
▁지켜봐야	-11.389
▁가르쳐	-11.389
렸고	-11.3895
▁적지만	-11.3895
▁느리고	-11.3895
으면서도	-11.3899
▁담배를	-11.39
▁고정력	-11.3903
▁비닐이	-11.3903
▁쟁겨	-11.3903
▁아니니	-11.3903
▁썩은	-11.3904
▁서울대	-11.3904
▁튜브형	-11.3906
▁아쿠아	-11.3907
▁남기고	-11.3908
▁낀	-11.3909
▁객관적	-11.391
▁양으로	-11.3911
▁끼어	-11.3912
정권	-11.3913
빠진	-11.3915
▁지장	-11.3916
번창하세요	-11.3916
▁레알	-11.3917
▁걸렸	-11.3918
▁가지는	-11.3919
▁미소	-11.3919
▁여분	-11.3919
▁새치	-11.3919
▁비싸네요	-11.392
▁아침식사	-11.392
▁올려서	-11.3922
▁다행이에요	-11.3922
▁편하긴	-11.3923
▁떼어내	-11.3923
형식	-11.3923
▁너무좋고	-11.3924
▁회사의	-11.3924
▁설치했습니다	-11.3925
▁쫀득한	-11.3925
댓	-11.3928
▁입어보니	-11.3928
▁부서	-11.393
▁지마켓	-11.3931
▁화한	-11.3932
보리	-11.3934
떨어져서	-11.3934
▁목을	-11.3936
기전	-11.3936
▁스킨은	-11.3936
▁씌워	-11.3937
▁공부를	-11.3937
▁번이나	-11.394
▁친척	-11.394
▁강원도	-11.3942
▁재구매할께요	-11.3942
▁아비	-11.3943
▁데는	-11.3944
▁되나	-11.3944
▁미끄럼방지	-11.3947
▁효능	-11.3948
들인	-11.3948
▁상품이네요	-11.3949
▁행사를	-11.395
적으로는	-11.395
▁발열	-11.3951
▁코코아	-11.3951
▁민주화	-11.3953
▁성격이	-11.3953
▁거칠어	-11.3954
권은	-11.3955
▁오시	-11.3956
온다	-11.3958
▁화려한	-11.3958
인과	-11.3959
▁공원	-11.3959
▁높여	-11.396
▁좋았음	-11.3961
긴다	-11.3963
▁않고요	-11.3964
▁순수한	-11.3964
▁위성	-11.3965
오르	-11.3966
저녁	-11.3968
사용해	-11.3969
▁사단	-11.3971
▁따가운	-11.3971
이었으나	-11.3972
▁가격까지	-11.3973
드시	-11.3973
▁선물을	-11.3973
▁제임스	-11.3974
시로	-11.3974
▁자유롭게	-11.3975
▁기장이	-11.3976
▁변신	-11.398
▁유리병	-11.398
▁남지	-11.3981
▁갈릴	-11.3982
흔	-11.3983
주셨	-11.3983
▁침략	-11.3984
▁번들거리	-11.3984
마를	-11.3984
▁마약	-11.3988
애용	-11.3988
▁재벌	-11.3989
야해요	-11.3989
렸습니다	-11.399
준다고	-11.399
▁의학	-11.399
▁록	-11.399
▁찔	-11.3991
▁싼게	-11.3993
▁로션이	-11.3993
▁출범	-11.3994
▁흡수되고	-11.3996
▁예외	-11.3997
▁탔	-11.3998
▁내린	-11.3998
그렇게	-11.3999
▁책이	-11.3999
▁제호	-11.4
▁택시	-11.4001
▁거꾸로	-11.4002
▁만두를	-11.4004
▁마셔보	-11.4005
▁가셨어요	-11.4005
하나요	-11.4006
▁각각의	-11.4008
인게	-11.4008
했죠	-11.4009
▁개정도	-11.4011
▁보습은	-11.4013
마감	-11.4014
크로	-11.4015
▁찾아보니	-11.4015
▁올렸다	-11.4016
▁놓았	-11.4016
쓸때	-11.4018
▁넣어두	-11.4021
▁검은콩	-11.4021
▁소면	-11.4022
국은	-11.4023
▁정비	-11.4024
▁마당	-11.4027
▁긴급	-11.4029
▁눅눅	-11.4029
긍	-11.4029
▁확연히	-11.403
▁설명서에	-11.4032
줬으면	-11.4032
▁치고는	-11.4032
▁한국에	-11.4032
▁이십	-11.4033
▁사람과	-11.4033
▁탈취	-11.4033
써봐야	-11.4034
▁만족했어요	-11.4036
읽	-11.4036
자들을	-11.4037
▁줬	-11.4038
▁녹지않고	-11.4038
▁힘드	-11.4039
▁수집	-11.404
▁클라	-11.404
▁먹기에는	-11.404
▁나라에서	-11.404
든다	-11.404
▁가동	-11.4042
▁멕시코	-11.4044
▁욕구	-11.4044
▁탄탄하고	-11.4045
▁왜곡	-11.4046
깊	-11.4046
▁지낸	-11.4046
▁주문해야	-11.4046
▁개운한	-11.4046
▁공병	-11.4047
▁흡입력이	-11.4049
▁해먹을	-11.4049
▁본격적으로	-11.4049
▁미용	-11.4051
▁뿌린	-11.4052
날씨	-11.4053
▁딸래미	-11.4053
▁괜찮겠죠	-11.4054
용량이	-11.4055
하단	-11.4055
▁쫓아	-11.4057
▁건성이	-11.4057
▁워싱턴	-11.4057
▁팔고	-11.4058
▁언덕	-11.4058
▁적혀	-11.4059
▁식초	-11.4059
▁좋아졌	-11.4061
▁사시는	-11.4061
▁짜요	-11.4062
▁자체의	-11.4066
▁어느날	-11.4066
▁맛있다는	-11.4068
▁날은	-11.4069
▁시킵니다	-11.4069
▁매우매우	-11.4069
▁끼우는	-11.4074
▁마녀공장	-11.4076
▁구체적으로	-11.4076
▁매주	-11.4078
타서	-11.4078
남편	-11.408
▁만족이요	-11.408
▁사용하다보니	-11.4081
않았는데	-11.4082
뚜	-11.4083
▁사라졌	-11.4084
▁섭	-11.4084
▁되겠어요	-11.4085
곳은	-11.4086
회는	-11.4086
거품	-11.4087
▁청나라	-11.409
테니	-11.4091
활동을	-11.4091
▁북위	-11.4093
▁반도	-11.4093
▁받았지만	-11.4094
자꾸	-11.4094
▁아침까지	-11.4095
▁테러	-11.4096
머리가	-11.4097
▁나라가	-11.4098
▁무소음	-11.4099
▁둥	-11.4102
인으로	-11.4103
뒀어요	-11.4104
아들이	-11.4104
▁타는	-11.4104
▁놓으니	-11.4105
체로	-11.4105
▁인물이	-11.4106
▁믿고먹는	-11.4108
▁잡티가	-11.4108
톱	-11.411
▁혐의로	-11.411
졌으면	-11.411
▁느꼈	-11.4111
▁주네요	-11.4111
▁가문	-11.4111
▁유치원	-11.4112
▁묵직	-11.4113
▁이혼	-11.4114
맛에	-11.4115
▁올리브영	-11.4116
▁부진	-11.4116
▁기대보다	-11.4117
▁사라져	-11.4118
▁톤이	-11.4121
▁그대로에요	-11.4122
▁골라서	-11.4124
▁꺼려	-11.4124
▁간만에	-11.4125
▁보였	-11.4126
화에	-11.4128
▁막내	-11.4128
▁반품하고	-11.4129
▁벨트	-11.413
▁사려다가	-11.413
▁화면에서	-11.4131
▁바르게	-11.4131
▁걸리고	-11.4132
▁고운	-11.4134
▁메이저	-11.4135
▁바꿨	-11.4135
▁샘플은	-11.4137
으루	-11.4139
화로	-11.4139
▁면적	-11.414
샀네요	-11.414
품으로	-11.414
▁위대한	-11.4141
▁내부에	-11.4142
축구	-11.4143
솥	-11.4143
▁법정	-11.4143
듯해서	-11.4146
▁말이야	-11.4146
▁닳	-11.4147
▁싱	-11.4147
맛이에요	-11.4148
사용후	-11.4148
▁사던	-11.4148
▁만원짜리	-11.415
▁그라데이션	-11.415
▁촘촘	-11.415
▁풍경	-11.4151
보라	-11.4153
▁임박	-11.4154
을듯	-11.4155
▁타입이	-11.4156
류가	-11.4158
▁투명케이스	-11.416
▁자외선	-11.416
▁좋길	-11.4161
▁얼마안	-11.4163
▁먹고나서	-11.4164
▁단단히	-11.4164
▁이어폰을	-11.4164
세상	-11.4166
삿는데	-11.4166
▁가성비짱	-11.4166
길을	-11.4167
거같아여	-11.4167
▁살펴보	-11.4169
당을	-11.4169
카와	-11.4169
▁필립스	-11.4169
가끔	-11.4171
▁퍼져	-11.4172
▁모자라	-11.4173
▁틈새	-11.4174
조가	-11.4177
▁노랑	-11.4177
▁전주	-11.4177
기능도	-11.4179
▁곽	-11.418
▁별도의	-11.4181
▁재미가	-11.4182
▁기분이에요	-11.4185
▁가상	-11.4185
▁않으니	-11.4185
▁작습니다	-11.4186
▁암살	-11.4186
▁대리	-11.4188
공업	-11.4188
▁너는	-11.4188
▁있다며	-11.4188
▁차분해	-11.419
▁기대이상으로	-11.419
다닐	-11.4191
▁모양으로	-11.4191
▁줄어	-11.4192
▁적을	-11.4193
▁짧네요	-11.4194
▁쓰던제품이라	-11.4195
▁에센스가	-11.4195
▁주장하는	-11.4195
▁있으신	-11.4195
▁깊	-11.4196
▁경쟁력	-11.4196
▁유통기간	-11.4196
▁작긴	-11.4197
▁컴팩트	-11.4198
써본	-11.4198
듯한데	-11.4201
▁잡내	-11.4201
▁말씀드리	-11.4201
▁롤링	-11.4202
▁컷	-11.4202
▁매끈	-11.4202
닿	-11.4202
▁설치했어요	-11.4202
대통령	-11.4203
▁그림자	-11.4203
▁원룸	-11.4205
평소	-11.4206
▁자료를	-11.4207
▁했구요	-11.421
▁관계로	-11.421
▁먹었었는데	-11.4211
▁제품이랑	-11.4212
분을	-11.4212
세로	-11.4212
▁써봐도	-11.4215
▁여름에도	-11.4216
▁형태를	-11.4217
▁피해자	-11.4217
▁드실	-11.4218
▁아이랑	-11.4219
신분	-11.4219
계에	-11.422
▁안경	-11.422
▁매치	-11.4221
▁지지대	-11.4221
▁따뜻합니다	-11.4222
▁지저분해	-11.4223
▁내용의	-11.4223
튼튼하고	-11.4224
▁중시	-11.4226
▁올리면	-11.4227
▁효과있	-11.4227
▁있었다고	-11.4229
▁조선의	-11.423
▁락	-11.4232
▁구상	-11.4235
▁분께	-11.4236
▁어쩜	-11.4236
▁바가	-11.4237
▁시즌에	-11.4238
▁펼치	-11.4239
▁눈화장	-11.424
▁만들려고	-11.424
▁침공	-11.4242
▁어울리	-11.4242
프라	-11.4244
일주일	-11.4244
겠음	-11.4246
▁덧바르	-11.4249
냥이	-11.4251
▁망가지	-11.4252
▁탱글탱글	-11.4254
▁아이와	-11.4255
▁발음	-11.4256
▁크다고	-11.4258
▁생기네요	-11.4258
▁나갔	-11.4258
▁친구도	-11.426
▁초콜렛	-11.4261
▁편안해요	-11.4262
▁애매한	-11.4263
▁리무버	-11.4264
▁했으며	-11.4264
▁이래서	-11.4265
앉아	-11.4266
▁명시	-11.4266
▁재료가	-11.4266
못해	-11.4268
▁눌리	-11.427
▁멀어	-11.427
▁샀다고	-11.4271
▁운용	-11.4272
▁포기하고	-11.4274
거리지	-11.4274
▁이나	-11.4275
▁짐작	-11.4275
▁방향을	-11.4275
▁반란	-11.4276
▁이슬람	-11.4278
▁탑재	-11.4278
▁맡겨	-11.4279
▁덧발라	-11.4279
해보세요	-11.428
▁소송	-11.4281
국으로	-11.4281
▁뜯고	-11.4282
졌던	-11.4283
▁규격	-11.4284
▁깨졌	-11.4285
▁대의	-11.4286
▁고추장	-11.4286
아는	-11.4289
▁뜯기	-11.429
▁침구	-11.429
맛있어서	-11.4291
▁저음	-11.4291
▁힘들었	-11.4291
▁아니야	-11.4292
▁소문듣고	-11.4292
▁막을	-11.4294
▁팔걸이	-11.4295
▁노조	-11.4296
▁가격저렴	-11.4297
▁전자레인지	-11.4298
▁쫄깃한	-11.4299
▁수압이	-11.4299
▁자신감	-11.4299
아리	-11.4301
▁것이기	-11.4302
▁부셔	-11.4302
▁배송두	-11.4303
선생	-11.4304
▁만남	-11.4304
표시	-11.4304
▁향이라	-11.4305
통일	-11.4305
▁진정되는	-11.4305
▁고정도	-11.4305
▁왕위	-11.4306
들었어요	-11.4307
▁누르고	-11.4307
▁단단하게	-11.4307
써봐서	-11.4308
인가봐요	-11.4308
뜻	-11.4308
▁썰	-11.4309
못하고	-11.431
햄	-11.431
▁오는데	-11.431
▁견과류	-11.4311
▁이민	-11.4313
▁굶	-11.4313
▁통상	-11.4313
▁올려두	-11.4314
▁입기에	-11.4314
▁잡기	-11.4314
▁프라	-11.4315
▁유로	-11.4315
가격으로	-11.4316
▁컵이	-11.4316
진않지만	-11.4316
▁마이크로	-11.4318
▁야간	-11.4318
▁검증	-11.4319
일듯	-11.432
실망	-11.432
▁부서진	-11.432
▁닦토	-11.4322
되구요	-11.4323
▁스승	-11.4323
▁완벽합니다	-11.4324
▁넥	-11.4326
▁윗부분	-11.4326
▁번정도	-11.4327
▁가치가	-11.433
▁채권	-11.4331
▁좋다네요	-11.4334
▁남았네요	-11.4335
▁침해	-11.4336
할정도로	-11.4336
▁하나님	-11.4336
▁먹는다	-11.4338
▁얼어서	-11.4338
▁전인데	-11.4341
▁사퇴	-11.4342
▁했어	-11.4342
▁퀸	-11.4343
▁관점	-11.4344
▁흡사	-11.4345
▁내외	-11.4345
생활을	-11.4346
▁승격	-11.4346
▁무력	-11.4347
여름에	-11.4347
▁새콤달콤	-11.4349
시절	-11.4351
▁명단	-11.4351
이쁘네요	-11.4352
▁특이한	-11.4352
▁얻었다	-11.4353
▁신성	-11.4354
▁스며들	-11.4355
▁솔로	-11.4356
물의	-11.4356
좋겠어요	-11.4357
▁남아요	-11.4358
▁요구하는	-11.4359
▁김성	-11.4359
몰에서	-11.436
나봅니다	-11.436
롭고	-11.436
▁발톱	-11.4361
짱짱	-11.4362
▁마니파세요	-11.4363
▁알갱이가	-11.4364
▁사라지는	-11.4364
▁보내주세요	-11.4365
▁오이	-11.4365
▁걸러	-11.4366
보면서	-11.4367
사용하던	-11.4367
소에	-11.4368
▁남을	-11.4368
▁전동	-11.437
▁민족의	-11.437
▁초반에	-11.4371
▁모짜렐라	-11.4372
▁위안	-11.4372
▁근원	-11.4373
▁동전	-11.4373
▁당김	-11.4373
▁유통기간도	-11.4374
잡고	-11.4376
망을	-11.4376
하겠죠	-11.4377
▁펴바르	-11.4377
▁무난무난	-11.4378
▁포인트로	-11.4379
▁좋을꺼	-11.438
▁마시겠습니다	-11.4382
▁써보겠습니다	-11.4383
▁상품이예요	-11.4383
▁곱고	-11.4385
냉장고	-11.4386
워터	-11.4386
▁사용된다	-11.4388
전용	-11.4389
▁화장실을	-11.4389
가네요	-11.439
▁윤리	-11.439
▁장르	-11.4391
▁공산주의	-11.4392
▁하고요	-11.4392
▁마셨는데	-11.4393
어디	-11.4395
▁먹이려고	-11.4395
높	-11.4396
▁구김	-11.4396
▁포르투갈	-11.4397
렀다	-11.4399
▁성향	-11.4399
▁알았네요	-11.4401
▁원조	-11.4402
야마	-11.4402
사태	-11.4402
▁가볍습니다	-11.4404
시리즈	-11.4404
두는	-11.4405
배달	-11.4406
무난	-11.4407
분의	-11.4408
방으로	-11.441
이즈	-11.441
▁의문이	-11.441
▁하나에	-11.4411
▁호주	-11.4413
▁저렴하지만	-11.4413
리안	-11.4414
먹었습니다	-11.4415
주의를	-11.4415
▁간식입니다	-11.4417
▁목표로	-11.4417
▁오브	-11.4417
앞에	-11.4418
억원	-11.4418
하고나서	-11.4419
▁계층	-11.4419
▁딱이고	-11.442
▁사로잡	-11.4422
▁물만두	-11.4423
정돈	-11.4424
▁클레	-11.4425
다이어트	-11.4425
끊	-11.4425
▁맡은	-11.4425
▁어머님이	-11.4426
▁존맛탱	-11.4426
▁전화도	-11.4426
진다고	-11.443
▁채용	-11.443
밀리	-11.443
▁할인할때	-11.443
▁태평양	-11.4431
경은	-11.4431
먹구	-11.4432
▁거라서	-11.4433
부탁	-11.4433
▁지워져요	-11.4433
▁존경	-11.4434
시스	-11.4434
▁또구매	-11.4434
▁피부관리	-11.4435
▁두루두루	-11.4435
▁아줌마	-11.4435
▁피어	-11.4436
재구매의사	-11.4436
▁적정	-11.4436
▁딸기맛	-11.4437
▁차고	-11.4438
▁이용할께요	-11.4439
▁지붕	-11.444
▁그랬네요	-11.4441
세기	-11.4441
▁메밀	-11.4442
▁나뉘어	-11.4442
▁평등	-11.4442
▁자리잡	-11.4442
▁삼일	-11.4444
▁부직포	-11.4445
▁무서운	-11.4445
▁린	-11.4446
▁능력이	-11.4446
▁세일하길래	-11.4447
▁게임을	-11.4448
▁겹쳐	-11.4451
▁협	-11.4451
▁촉촉하면서	-11.4452
▁조립하는	-11.4452
▁에어캡	-11.4454
▁에뛰드	-11.4455
▁비지떡	-11.4455
▁잘되어있고	-11.4457
▁인형	-11.4459
▁두께감	-11.446
닷	-11.446
구용	-11.4461
턱	-11.4462
▁블랙이	-11.4463
듣	-11.4463
▁넣어주	-11.4463
▁피부색	-11.4464
▁사람들도	-11.4464
▁내면	-11.4464
▁뒤늦게	-11.4466
▁양에	-11.4469
▁기술이	-11.4469
▁순환	-11.447
▁닦아주	-11.4471
▁샤워하고	-11.4472
▁미루	-11.4472
▁못했던	-11.4475
▁험	-11.4478
▁보습에	-11.448
▁인력	-11.4481
▁당신은	-11.4481
▁즐기는	-11.4482
▁떨어진다	-11.4482
다니는	-11.4482
▁기름지	-11.4483
▁주년	-11.4483
▁빳빳	-11.4484
▁사법	-11.4484
▁맡기	-11.4484
▁익숙해지	-11.4485
▁파랑	-11.4486
▁두장	-11.4487
주셨어요	-11.4487
▁닦으면	-11.449
▁가졌다	-11.449
질렀	-11.449
덮	-11.4491
▁의사가	-11.4491
▁춥	-11.4493
볼게요	-11.4495
▁자주이용	-11.4495
▁뚝	-11.4495
▁그대로입니다	-11.4495
기간에	-11.4495
▁뷰티	-11.4496
▁망가져서	-11.4498
▁있을듯	-11.45
▁먹긴	-11.45
▁제외하고는	-11.4505
▁강추해요	-11.4506
▁안먹어	-11.4509
▁못하네요	-11.4509
자료	-11.451
▁조절할	-11.451
▁공유기	-11.4514
아웃	-11.4515
▁샘플까지	-11.4516
▁샴푸가	-11.4516
▁이익을	-11.4516
▁말인가	-11.4517
름이	-11.4517
▁기호성	-11.4517
▁코너	-11.4517
▁있거나	-11.4519
닐	-11.4519
▁먹여보	-11.4519
▁갖추고	-11.452
▁숨을	-11.4521
▁여자의	-11.4521
▁무난해서	-11.4522
찐	-11.4522
▁면봉	-11.4524
▁의견이	-11.4524
▁잘맞아서	-11.4524
▁신인	-11.4526
▁쫀득하고	-11.4529
▁흔적이	-11.4531
▁늦을	-11.4531
▁두유를	-11.4531
▁소모	-11.4532
▁생기지	-11.4532
빅	-11.4532
▁사회에	-11.4532
속으로	-11.4533
▁지혜	-11.4533
▁붙어있는	-11.4534
▁손목이	-11.4534
▁문화적	-11.4535
▁호두	-11.4537
▁포함된	-11.4537
▁석류	-11.4537
▁피스	-11.4537
▁정서	-11.4538
이더라구요	-11.4538
소금	-11.4538
하셔요	-11.4539
▁결과적으로	-11.454
▁한약	-11.454
▁판매처	-11.454
박스가	-11.454
구매한	-11.454
▁조심히	-11.4541
▁망명	-11.4542
▁아이스팩이	-11.4542
▁배송비도	-11.4543
▁즐기	-11.4544
▁없어진	-11.4544
▁이벤트로	-11.4544
▁생리대	-11.4544
▁불편하지만	-11.4545
손으로	-11.4547
▁흘러내리	-11.4548
▁얘는	-11.4548
졌다고	-11.4549
▁고급스럽	-11.455
▁식당에서	-11.455
쪼	-11.4552
▁소고기	-11.4552
▁늘려	-11.4553
오렌지	-11.4553
건설	-11.4554
▁개조	-11.4554
▁가난	-11.4555
왓어요	-11.4557
▁주문하려고	-11.4557
▁막혀	-11.4559
▁먹기전	-11.4559
▁술안주로	-11.456
▁쉐딩	-11.4561
안에서	-11.4562
▁독점	-11.4562
령이	-11.4562
▁사니	-11.4562
▁응답	-11.4563
▁갠	-11.4565
하겠지만	-11.4566
▁소지	-11.4567
▁좋았어	-11.4568
▁한알	-11.4569
▁어울립니다	-11.4571
냄새는	-11.4572
▁시카	-11.4573
▁에스	-11.4574
관에	-11.4574
▁학자	-11.4575
부와	-11.4578
대와	-11.4578
▁드시면	-11.4578
▁대회에서	-11.458
▁저서	-11.458
민주당	-11.458
얇	-11.4581
▁횟수	-11.4581
▁바래봅니다	-11.4581
▁붙였	-11.4582
▁크다는	-11.4583
▁도덕	-11.4583
▁대결	-11.4584
용으로도	-11.4585
▁편안함	-11.4585
사세요	-11.4586
▁무겁게	-11.4587
▁클리	-11.4588
▁값을	-11.4589
뿜	-11.459
슴다	-11.459
▁들어하네요	-11.459
▁현금	-11.459
소에서	-11.4591
▁말입니다	-11.4591
▁체질	-11.4596
▁먹었다	-11.4596
블로	-11.4597
▁걱정되	-11.4597
▁물건입니다	-11.4597
▁반신반의하며	-11.4598
▁송장	-11.4598
▁가격대에	-11.4599
▁가톨릭	-11.4601
▁환경을	-11.4601
▁야마	-11.4605
▁오일리	-11.4606
▁딱맞아요	-11.4609
▁알겠죠	-11.461
▁체형	-11.461
▁오늘의	-11.4611
▁마라	-11.4611
▁촉촉하	-11.4612
▁후추	-11.4613
▁평도	-11.4615
▁카카오	-11.4617
▁초청	-11.4618
▁결의	-11.4618
▁나한테	-11.4618
▁남길게요	-11.4619
남은	-11.4619
▁자꾸만	-11.462
▁종사	-11.462
▁번째구매	-11.4621
▁본연의	-11.4621
나가는	-11.4622
▁핸들링	-11.4623
▁먹고나면	-11.4624
▁먹기편하고	-11.4624
꼴	-11.4626
▁출생	-11.4626
▁있습니당	-11.4627
▁갔는데	-11.4627
▁감안하고	-11.4628
▁속눈썹이	-11.4629
▁레시피	-11.463
▁부대찌개	-11.463
▁두려워	-11.463
▁달걀	-11.4631
▁하리보	-11.4631
▁사방	-11.4633
▁주시면	-11.4633
▁일인	-11.4634
▁날려	-11.4634
▁전문가들	-11.4635
▁양념장	-11.4636
▁사용해보진	-11.4639
▁너무좋아	-11.4639
▁포토	-11.464
▁나니까	-11.464
▁걸렸고	-11.4641
마시는	-11.4642
금융	-11.4643
아님	-11.4643
▁치즈를	-11.4644
▁나왔네요	-11.4644
▁가열	-11.4645
▁전역	-11.4645
▁마그네슘	-11.4645
주에	-11.4646
▁비유	-11.4646
좋다는	-11.4648
▁명은	-11.4648
으세요	-11.4649
▁따갑지	-11.4649
공장	-11.465
▁비추입니다	-11.465
▁모두들	-11.4651
▁보관이	-11.4651
▁맛이야	-11.4652
▁강하네요	-11.4653
▁단단해서	-11.4653
▁개선되	-11.4654
▁다르지만	-11.4654
스케	-11.4655
▁문제인지	-11.4658
씹	-11.466
▁악화	-11.466
▁빠른배송감사	-11.466
▁접어서	-11.466
▁택배아저씨	-11.466
선에	-11.4661
▁번지지	-11.4661
졌지만	-11.4662
▁바둑	-11.4663
치의	-11.4666
▁빡	-11.4667
빠르	-11.4667
산화	-11.4668
▁연구를	-11.4669
▁정통	-11.4669
▁앞뒤	-11.4669
▁숨겨	-11.467
▁독립운동	-11.4671
▁선물해줬는데	-11.4671
하시는분들	-11.4672
▁했는데요	-11.4673
▁크림으로	-11.4674
▁연간	-11.4676
치면	-11.4677
자들에게	-11.4677
튜	-11.4677
렸던	-11.4677
▁번은	-11.4678
하는건	-11.4679
▁해물	-11.4679
▁일으켜	-11.4679
▁패딩	-11.4679
댄	-11.468
▁김종	-11.468
야만	-11.468
같습니다	-11.4683
▁현상을	-11.4683
▁양의	-11.4683
▁신설	-11.4684
동을	-11.4684
▁가려움	-11.4685
▁호불호	-11.4685
▁지식인	-11.4686
하니깐	-11.4686
▁스캔	-11.4686
▁지성인	-11.4687
왕의	-11.4687
▁왜이렇게	-11.4688
▁무사	-11.4689
가슴	-11.4689
▁지대	-11.469
▁예쁠	-11.469
▁마크	-11.4692
▁최고로	-11.4692
▁피부진정	-11.4692
▁감사했어요	-11.4693
▁가볍네요	-11.4694
▁일본이	-11.4695
▁간단해서	-11.4696
▁그야말로	-11.4696
쌈	-11.4696
▁의장	-11.4696
▁좋았지만	-11.4697
▁호가	-11.4699
▁당기지	-11.4699
▁싶으면	-11.47
▁구입하는데	-11.47
▁함량	-11.47
▁친절하셨어요	-11.4701
▁군주	-11.4701
분야	-11.4702
▁받아들여	-11.4702
▁높이는	-11.4702
▁권리를	-11.4702
▁생각하며	-11.4702
▁먹는것	-11.4702
▁보내준	-11.4703
▁기초를	-11.4703
▁알았으면	-11.4703
▁처분	-11.4703
▁춤	-11.4704
▁도포	-11.4704
▁움직여	-11.4704
▁숙성	-11.4704
▁하였	-11.4704
개인적으로	-11.4705
▁포인트는	-11.4705
▁약을	-11.4708
▁거부감없이	-11.4709
주지	-11.4709
▁엉망이	-11.4709
▁두면	-11.471
▁청소도	-11.471
▁수신	-11.4711
그린	-11.4712
하고요	-11.4712
▁라벨	-11.4712
지난	-11.4712
▁래	-11.4712
하실때	-11.4713
▁진짜진짜	-11.4714
▁백탁현상	-11.4715
▁사용도	-11.4715
▁모습은	-11.4715
▁불만이	-11.4716
▁화사하고	-11.4717
▁일체형	-11.4718
불가	-11.4718
▁균	-11.472
▁발견된	-11.472
▁수납이	-11.472
시스템	-11.472
암튼	-11.4722
▁온몸	-11.4723
▁아니냐	-11.4724
▁걸친	-11.4724
측은	-11.4726
▁스타일이	-11.4727
가루가	-11.4727
줬	-11.4728
만해요	-11.4728
▁거랑	-11.4729
▁헹궈	-11.4729
▁아실	-11.4729
여러	-11.473
▁얻는	-11.473
▁어둡	-11.4731
▁나무가	-11.4732
▁남동생	-11.4732
자국이	-11.4733
음에도	-11.4733
▁꼼꼼해서	-11.4734
필요없	-11.4734
▁급할때	-11.4735
용으로는	-11.4736
▁대형마트	-11.4737
▁어려워요	-11.4738
▁늙은	-11.4738
▁마시게	-11.4739
▁서울특별시	-11.4739
▁자취생	-11.4739
▁부분만	-11.4739
▁느려	-11.4741
▁키우는	-11.4741
▁취향이	-11.4741
볼때	-11.4741
▁생기면	-11.4743
▁알림	-11.4743
▁골프	-11.4744
▁물리학	-11.4744
▁좋아져서	-11.4745
▁오니	-11.4746
▁욕조	-11.4747
주의자	-11.4747
함께	-11.4748
▁코로나로	-11.475
▁마찰	-11.475
▁대표팀	-11.4752
에여	-11.4753
▁제공하는	-11.4753
▁항성	-11.4753
뿌려	-11.4753
▁국내에서	-11.4756
▁칼로리가	-11.4757
▁차량용	-11.4757
맛있습니다	-11.4758
▁것보다는	-11.4758
▁추천하는	-11.4758
▁약하네요	-11.4759
▁밀착력이	-11.4759
▁별로라	-11.476
해준다	-11.476
▁놈이	-11.4763
타는	-11.4763
▁패드가	-11.4764
▁쓰는중	-11.4764
▁맘에들어서	-11.4764
작용	-11.4764
▁신맛이	-11.4764
쭉	-11.4765
▁정체	-11.4765
스러	-11.4768
▁흥분	-11.4768
▁식단	-11.4768
▁산책	-11.4768
▁쌉니다	-11.4769
댜	-11.4769
▁혈관	-11.4769
▁발도	-11.4769
▁분야에서	-11.477
▁맞서	-11.477
▁보여준다	-11.4771
▁지구의	-11.4771
▁썻는데	-11.4771
▁김치가	-11.4772
▁땡	-11.4772
▁구매하니	-11.4775
해줬어요	-11.4775
▁두개가	-11.4776
▁마실수	-11.4777
▁당신이	-11.4777
대기	-11.4778
▁이쁠	-11.4779
▁업데이트	-11.4779
▁예로	-11.478
교를	-11.4781
▁자칫	-11.4782
흘	-11.4782
▁주관	-11.4783
▁잇어서	-11.4784
▁델	-11.4784
했어여	-11.4784
▁이후에는	-11.4788
구입했는데	-11.4789
▁어이가	-11.4791
무게	-11.4793
▁속하는	-11.4794
대고	-11.4795
뷰	-11.4796
▁그녀	-11.4797
▁맑아	-11.4798
▁남겨요	-11.4799
낀	-11.4799
법으로	-11.4801
놔야	-11.4801
▁호랑이	-11.4803
▁하자가	-11.4803
재를	-11.4804
▁찍었	-11.4805
▁할려고	-11.4805
▁와중에	-11.4805
버리네요	-11.4808
▁부탁드려요	-11.4808
▁어른이	-11.4808
▁동반	-11.4809
▁건의	-11.481
▁걸리네요	-11.481
▁아웃	-11.481
어느	-11.4813
맛있고	-11.4813
▁진하네요	-11.4814
▁강력추천	-11.4814
릭스	-11.4814
▁이상을	-11.4815
▁연동	-11.4815
할때는	-11.4816
하자는	-11.4817
▁바라보	-11.4817
▁감독의	-11.4818
모공	-11.4818
▁뜨거워	-11.4819
▁살아나	-11.482
하지않아	-11.482
오리	-11.482
▁바릅니다	-11.4821
▁극히	-11.4822
같지	-11.4822
▁인사를	-11.4822
▁산소	-11.4822
▁심플해서	-11.4824
하더라도	-11.4825
▁맞나	-11.4826
▁사용하려	-11.4829
딸이	-11.4829
▁자신에게	-11.4831
▁이로써	-11.4832
▁줘	-11.4832
▁마음대로	-11.4833
▁평상시	-11.4834
▁쓰인다	-11.4834
▁사려	-11.4834
좋아하네요	-11.4837
보았어요	-11.4837
▁정품이라	-11.4838
▁긴가민가	-11.4839
▁옆면	-11.4841
▁흡입력도	-11.4841
테이블	-11.4843
지마	-11.4845
키는	-11.4845
▁도어	-11.4846
싶다	-11.4847
▁미국에	-11.4848
▁안써봤는데	-11.4848
▁일곱	-11.4849
말을	-11.4849
▁냄새를	-11.4849
▁학자들	-11.485
▁스크	-11.485
▁호기심에	-11.4852
▁집앞에	-11.4852
▁이르러	-11.4852
▁태도를	-11.4853
▁괜찮았는데	-11.4854
전혀	-11.4855
▁자유를	-11.4855
▁넣으	-11.4856
▁씨는	-11.4856
▁시동	-11.4856
▁번창하시길	-11.4857
▁분쟁	-11.4858
뜩	-11.4858
▁찌꺼기	-11.4858
▁구매할때	-11.4858
▁기분입니다	-11.4858
▁쓰던거예요	-11.4859
▁어르신들	-11.4859
▁주머니에	-11.4862
▁알게되어	-11.4862
▁불량품	-11.4863
▁녹여	-11.4864
▁아직안	-11.4865
▁발립니다	-11.4867
해졌	-11.4867
원과	-11.4868
▁년전	-11.4869
▁착해요	-11.4869
▁냈다	-11.487
▁유기농이라	-11.487
주의의	-11.4871
▁구매했다가	-11.4872
▁남겼	-11.4872
▁배송중에	-11.4875
괄	-11.4876
▁혁신	-11.4879
▁지니	-11.4879
▁오배송	-11.4879
해주니	-11.488
▁싶었	-11.4881
▁설치할	-11.4881
▁정도만	-11.4882
▁소리에	-11.4885
▁스크레치	-11.4886
▁각기	-11.4887
▁딱인	-11.4888
▁무난히	-11.4889
▁교수는	-11.489
▁연설	-11.4892
다들	-11.4893
▁산뜻하게	-11.4894
▁레깅스	-11.4896
노스	-11.4896
▁독서	-11.4897
▁싶었어요	-11.4898
▁맛있구요	-11.4898
▁향기는	-11.4898
거치대	-11.4898
▁안타깝	-11.4899
▁소스도	-11.4899
쾌	-11.4901
대책	-11.4902
▁상위	-11.4903
▁베이비파우더	-11.4903
▁집까지	-11.4904
▁준다고	-11.4906
들로부터	-11.4907
▁개선이	-11.4908
▁크리니크	-11.4909
▁물건이네요	-11.4911
중간	-11.4913
▁미끌	-11.4913
습다	-11.4913
▁지냈다	-11.4913
지에서	-11.4914
▁샀는데요	-11.4915
▁그릴	-11.4917
▁방출	-11.4917
▁신기하네요	-11.4917
▁행복한	-11.4917
▁우엉차	-11.4917
▁구할	-11.4917
▁주력	-11.4918
효과를	-11.4919
전체	-11.4919
▁서너	-11.4919
▁아이브로우	-11.4919
님의	-11.492
하시는게	-11.4921
▁사형	-11.4921
▁개설	-11.4921
▁중에서는	-11.4922
▁묶음배송	-11.4922
깨끗	-11.4922
▁정리하기	-11.4922
▁제외하고	-11.4923
식탁	-11.4923
▁부디	-11.4924
▁감동입니다	-11.4925
▁튀어나와	-11.4926
▁마감처리	-11.4926
▁제격	-11.4927
▁오븐	-11.4927
▁도둑	-11.4927
▁과거의	-11.4927
▁시선	-11.4928
▁아랍	-11.4928
▁매체	-11.4929
▁추천입니다	-11.4929
▁슬슬	-11.4931
▁않으나	-11.4931
▁시분	-11.4932
▁무겁다	-11.4932
▁자제	-11.4933
▁차량에	-11.4934
▁국방	-11.4935
▁로켓배송으로	-11.4937
▁주차	-11.4938
슬리	-11.4938
시네요	-11.4938
▁무첨가	-11.4939
▁선물받은	-11.4939
▁즐겁게	-11.4939
▁따갑고	-11.4939
▁사먹었는데	-11.4939
▁대박이네요	-11.4939
▁슬픔	-11.494
▁생각했던거보다	-11.4943
▁구현	-11.4943
▁하는것	-11.4943
한개	-11.4943
▁그러는	-11.4943
▁부담되	-11.4944
▁나가면	-11.4944
▁그러던	-11.4945
식구	-11.4945
대장	-11.4945
▁선을	-11.4946
▁인터뷰	-11.4947
▁병원에	-11.4948
▁신선도	-11.4948
보다가	-11.4948
하려다	-11.4949
▁니베아	-11.495
▁콘센트	-11.495
▁점에	-11.495
님께서	-11.495
비로	-11.4951
▁힘들지만	-11.4951
▁다음으로	-11.4951
▁사용법	-11.4953
▁다리미	-11.4953
▁입어보고	-11.4953
▁맛있지만	-11.4956
▁아이들을	-11.4956
▁과거에	-11.4958
▁매콤하니	-11.4958
어머니	-11.4958
▁건조대	-11.4959
▁팀이	-11.4959
▁잘산것같아요	-11.4959
▁잃어버려서	-11.496
난다고	-11.496
지거나	-11.496
▁전했다	-11.4961
▁쓰여	-11.4962
▁장난아니	-11.4962
▁축축	-11.4963
▁여름철	-11.4963
▁터치감도	-11.4964
▁심하네요	-11.4964
▁설날	-11.4964
▁사랑입니다	-11.4965
▁평소보다	-11.4966
▁화끈	-11.4968
생이	-11.4968
▁부러	-11.4969
▁빠져요	-11.4969
▁생각했던거	-11.497
▁일요일에	-11.4971
▁미흡	-11.4972
▁안된다는	-11.4972
▁괜찮게	-11.4975
잘안	-11.4975
거려	-11.4976
▁때보다	-11.4976
버림	-11.4979
넹	-11.498
▁감기는	-11.498
▁통증	-11.4983
▁한달이	-11.4984
▁기분좋은	-11.4985
▁항복	-11.4987
▁당한	-11.4988
▁매운거	-11.4988
트의	-11.4989
▁주어진	-11.499
▁외장하드	-11.499
▁입큰	-11.4993
담에	-11.4993
▁시식전	-11.4994
긴합니다	-11.4994
▁시원합니다	-11.4994
▁최대의	-11.4995
▁우유는	-11.4995
없구요	-11.4997
▁정치인	-11.4998
▁쓰라고	-11.4999
▁되겠죠	-11.5001
▁삶은	-11.5001
▁신기해요	-11.5002
났는데	-11.5002
▁욕실에	-11.5003
언제	-11.5003
▁길지	-11.5003
받았네요	-11.5003
▁팝	-11.5004
증을	-11.5007
▁했는지	-11.5007
▁이루어	-11.5007
▁모서리가	-11.5007
들처럼	-11.5008
▁융	-11.5009
▁안쓰는	-11.5009
▁누르는	-11.501
▁개운	-11.501
첼	-11.5011
기록	-11.5011
▁무상	-11.5013
▁고민끝에	-11.5013
▁곱창	-11.5013
▁챙겨주	-11.5013
▁사냥	-11.5015
거면	-11.5016
▁스타일링	-11.5016
▁재생크림	-11.5017
▁좋아해	-11.5018
▁종류도	-11.5018
▁조여	-11.5019
▁패키지가	-11.5019
▁생각하지	-11.5019
▁못사	-11.5023
페이지	-11.5023
사용중	-11.5024
▁밥맛이	-11.5025
▁에프	-11.5025
쇼파	-11.5026
렸지만	-11.5029
사람은	-11.5029
▁확률	-11.5031
랏	-11.5031
▁다녀요	-11.5033
▁절망	-11.5033
▁원시	-11.5034
▁받음	-11.5034
▁작다는	-11.5036
▁싶기도	-11.5036
▁제조일자도	-11.5036
놓아	-11.5037
▁아니라면	-11.5037
력과	-11.5038
▁취재	-11.5038
▁고지	-11.5039
▁광장	-11.504
파가	-11.504
손상	-11.504
되더라구요	-11.504
▁사이로	-11.504
▁뽕	-11.5043
▁좋은게	-11.5043
▁미숙	-11.5044
▁신는	-11.5045
▁빵이	-11.5046
▁곡물	-11.5047
▁파손된	-11.5047
륙	-11.5048
허리	-11.5048
▁원단도	-11.5048
▁달래	-11.505
않아	-11.505
▁연유	-11.5051
상담	-11.5051
론에	-11.5052
▁써야겠어요	-11.5053
▁팽	-11.5055
스트로	-11.5055
▁요제품	-11.5056
레이크	-11.5057
▁용량에	-11.506
철도	-11.506
되어있어	-11.506
▁사건의	-11.5062
▁멸망	-11.5062
▁저절로	-11.5062
위의	-11.5063
넥	-11.5064
▁증언	-11.5065
▁저렴하구요	-11.5065
▁한개가	-11.5067
▁아들을	-11.5068
관으로	-11.5069
▁보진	-11.5069
▁답변도	-11.5069
▁내렸	-11.5071
▁얼굴도	-11.5072
▁어렵지만	-11.5073
▁남편의	-11.5074
▁딸려	-11.5074
연락	-11.5074
▁골반	-11.5074
▁사설	-11.5075
▁억압	-11.5075
▁반성	-11.5076
▁깔려	-11.5078
편하네요	-11.5078
상품으로	-11.5079
▁의자는	-11.5079
▁이거랑	-11.5081
▁그정도	-11.5082
▁시작으로	-11.5082
화학	-11.5082
복용	-11.5083
▁순대	-11.5084
▁견고합니다	-11.5085
팬티	-11.5085
▁평소에도	-11.5085
▁틀림없	-11.5086
▁건조할	-11.5087
▁어떠	-11.5088
▁첨으로	-11.5089
▁하더라고요	-11.509
▁다수	-11.509
▁발판	-11.5094
▁나왔는데	-11.5095
▁돌아왔어요	-11.5098
▁같긴한데	-11.5099
▁입원	-11.51
▁출신의	-11.5102
▁호스	-11.5102
▁부추	-11.5103
▁똑똑	-11.5103
계약	-11.5103
▁금세	-11.5106
▁좋겠는데	-11.5106
▁유교	-11.5106
▁고르고	-11.5107
▁수준의	-11.5107
▁빨랏	-11.5108
▁금액이	-11.5108
것으로	-11.5109
▁선수로	-11.5113
▁수도권	-11.5114
▁태국	-11.5114
▁되길	-11.5115
▁자리가	-11.5118
▁네일	-11.512
▁호를	-11.5121
▁분만에	-11.5122
사이에	-11.5123
▁왠	-11.5123
▁밥도	-11.5124
▁믹스커피	-11.5125
▁본인이	-11.5125
▁후기는	-11.5126
▁면발이	-11.5126
▁공군	-11.5127
▁드렸습니다	-11.5127
씬	-11.5129
▁못했네요	-11.5129
파를	-11.5131
안되고	-11.5132
햇네요	-11.5133
▁한숨	-11.5133
▁온도조절	-11.5134
▁가볍지	-11.5136
▁조립하고	-11.5136
▁올바른	-11.5136
고급	-11.5137
좋은제품	-11.5138
게되네요	-11.5138
▁좋어요	-11.5139
▁사건은	-11.514
▁간격	-11.5141
않네요	-11.5142
▁닦아내는	-11.5142
▁실제로는	-11.5142
▁팔아서	-11.5142
▁실업	-11.5143
▁핏은	-11.5143
▁다음은	-11.5143
알아	-11.5143
▁구매네요	-11.5143
▁전투에서	-11.5143
▁썰어	-11.5143
▁스웨덴	-11.5144
▁녹은	-11.5145
▁만두피가	-11.5146
▁얼굴은	-11.5147
▁필름을	-11.5151
▁키감	-11.5151
▁달라졌	-11.5151
▁주무	-11.5153
▁젖어	-11.5153
▁허리를	-11.5154
▁아기도	-11.5154
▁편입	-11.5154
▁내려오	-11.5154
하나는	-11.5155
없으면	-11.5155
▁같진	-11.5155
▁흘려	-11.5155
▁비교가	-11.5155
▁주문했고	-11.5156
▁이르렀다	-11.5156
▁닦이고	-11.5157
땀	-11.5157
▁무르	-11.5158
▁수영	-11.5158
▁드렸	-11.5159
▁올라가는	-11.5159
▁재구매했는데	-11.516
▁백성들	-11.516
▁있는지는	-11.5161
▁늘어나는	-11.5161
▁돌리는	-11.5162
▁하락	-11.5163
▁죽고	-11.5163
▁확인해	-11.5163
상태도	-11.5163
▁지방의	-11.5164
등등	-11.5165
▁게이밍	-11.5165
론적	-11.5166
▁행사때	-11.5167
▁안감	-11.5168
▁대조	-11.5168
올라오	-11.5169
▁하려	-11.5169
▁창설	-11.517
▁궁금하네요	-11.517
▁위생적으로	-11.5171
▁쉽다	-11.5171
도있고	-11.5172
▁와이어	-11.5174
뜨리	-11.5175
▁한포	-11.5177
▁금요일에	-11.5177
▁따뜻해서	-11.5178
됐다고	-11.5178
▁깨끗하	-11.5179
▁모양의	-11.518
액이	-11.5181
▁아가가	-11.5181
▁접속	-11.5183
기보다는	-11.5183
으러	-11.5183
즈는	-11.5184
▁신경써	-11.5184
▁묵은	-11.5185
▁덜해서	-11.5186
▁받앗습니다	-11.5188
▁뜰	-11.5189
▁할인행사	-11.5189
▁라면이	-11.5191
훈련	-11.5191
▁올리는	-11.5191
▁보기에도	-11.5192
모르겟	-11.5193
▁되기도	-11.5193
넨	-11.5196
▁기운	-11.5197
▁찬성	-11.5197
▁대폭	-11.5198
▁번가에서	-11.5199
▁코디	-11.5199
차로	-11.5199
▁우유가	-11.5201
▁물맛도	-11.5203
▁링케	-11.5206
▁가짜	-11.5207
▁부러져서	-11.5207
▁셋팅	-11.5208
▁수요일	-11.5208
▁허가	-11.521
▁살아남	-11.521
량도	-11.5211
할지	-11.5211
▁기상	-11.5212
삼아	-11.5213
▁닿아	-11.5215
▁닦이는	-11.5216
▁바와	-11.5216
▁슬라이스	-11.5217
보네요	-11.5219
▁개에	-11.5219
▁닫아	-11.5219
흠	-11.522
▁다른걸	-11.522
▁뿌듯합니다	-11.522
▁입주	-11.5221
▁글로	-11.5222
▁만족스러웠어요	-11.5222
▁고무줄	-11.5222
동물	-11.5224
▁사라진	-11.5225
▁같았어요	-11.5225
▁플라스틱이	-11.5225
쉽	-11.5226
인건	-11.5226
▁차에서	-11.5227
▁질문에	-11.5227
▁푹신푹신	-11.5227
▁체력	-11.5227
기획	-11.5227
▁지역은	-11.5228
▁잡은	-11.5228
▁곳도	-11.5229
상과	-11.523
▁수저	-11.5231
▁사랑의	-11.5231
처음에	-11.5232
화장실	-11.5232
플레이	-11.5233
▁먹어야겠어요	-11.5234
▁음향	-11.5235
▁굵	-11.5236
년째	-11.5236
▁용기도	-11.5237
빠져서	-11.5237
▁줄은	-11.5237
▁하기엔	-11.5238
▁유난히	-11.5238
▁하더니	-11.5238
▁크리	-11.5239
▁어디로	-11.5239
▁팔을	-11.5239
▁되풀이	-11.5239
식사	-11.5239
버그	-11.524
▁유럽의	-11.5242
▁좋아요좋아요좋아요	-11.5243
▁사람입니다	-11.5243
▁충족	-11.5244
센트	-11.5245
▁분자	-11.5246
▁붙였어요	-11.5246
하시는분	-11.5246
신의	-11.5246
▁최저	-11.5247
▁하셨어요	-11.5247
▁익숙한	-11.5248
▁김영삼	-11.5249
재가	-11.525
▁검색해	-11.525
솔직히	-11.5251
▁느낌이지만	-11.5251
▁이후의	-11.5251
권에	-11.5252
▁없을듯	-11.5252
치곤	-11.5253
석을	-11.5254
▁컴퓨터를	-11.5255
졋	-11.5255
겠더라구요	-11.5257
우가	-11.5258
▁나오기	-11.5259
▁인정받	-11.5259
▁만만치	-11.526
▁쪼끔	-11.526
▁세면대	-11.526
이후	-11.5261
▁아리	-11.5262
▁알맞게	-11.5262
▁이상품	-11.5265
▁독재	-11.5265
▁가성비최고	-11.5265
▁놀라운	-11.5265
▁샀어용	-11.5265
▁안맞아요	-11.5266
해주셨네요	-11.5266
례를	-11.5267
▁캘리포니아	-11.5269
▁김일성	-11.527
▁돼지고기	-11.527
▁코치	-11.5271
▁정치권	-11.5271
▁아이들의	-11.5273
▁빠른데	-11.5273
네스	-11.5273
▁손가락으로	-11.5273
▁다음번에	-11.5274
▁시쯤	-11.5275
▁꾸미	-11.5275
▁늘쓰던거라	-11.5275
스러울	-11.5277
▁지성인데	-11.5278
목이	-11.528
▁문자로	-11.528
▁이사하면서	-11.528
류는	-11.5281
▁가령	-11.5281
▁모습으로	-11.5281
▁지퍼가	-11.5282
등급	-11.5283
▁여자친구가	-11.5283
▁긴머리	-11.5284
▁않았으나	-11.5284
▁편리하	-11.5285
▁고래	-11.5286
▁샤워후	-11.5286
▁주문햇는데	-11.5287
느끼	-11.529
▁배송지연	-11.5292
▁붉은기가	-11.5292
▁안먹고	-11.5292
▁짜장	-11.5293
잘쓰겠습니다	-11.5293
회담	-11.5294
▁됬	-11.5296
▁비슷한데	-11.5296
▁테이프로	-11.5297
▁색조	-11.5297
▁촉촉한게	-11.5298
▁배송기간	-11.5299
▁엄마한테	-11.5299
▁쿠쿠	-11.53
▁뒷꿈치	-11.5301
▁늦었	-11.5301
▁기관지	-11.5302
▁넉넉하	-11.5302
▁포장된	-11.5307
점으로	-11.5307
▁연료	-11.5308
▁미국이	-11.5309
▁기름지지	-11.531
으니깐	-11.531
▁아이의	-11.531
▁아르헨티나	-11.5311
▁볼때	-11.5312
▁맛보고	-11.5313
▁떨어	-11.5314
▁날리	-11.5314
▁왔던	-11.5314
▁할인도	-11.5315
▁우산	-11.5315
▁반정도	-11.5316
▁지금껏	-11.5319
▁남네요	-11.5321
▁옅어지	-11.5322
▁극건성	-11.5323
▁동화	-11.5324
▁대대	-11.5324
핫도그	-11.5325
삽니다	-11.5325
▁로드샵	-11.5326
▁맞으면	-11.5326
께용	-11.5327
▁단편	-11.5327
▁생명의	-11.5327
계가	-11.5329
녹아서	-11.5329
▁느낌에	-11.533
▁시작하는	-11.533
▁유해성분	-11.5332
▁넘기	-11.5332
맡	-11.5333
▁변동	-11.5334
▁않았을	-11.5334
▁못해요	-11.5334
▁사업을	-11.5334
▁이빨	-11.5334
하기까지	-11.5335
▁주문해야겠어요	-11.5336
어제	-11.5336
▁손실	-11.5337
자본	-11.5337
▁비틀	-11.5338
▁아팠	-11.5338
▁어두워	-11.5338
빨랐	-11.5339
▁분홍	-11.5339
▁연구소	-11.5339
▁오겠습니다	-11.534
▁힙	-11.5342
▁출현	-11.5342
▁알기	-11.5343
▁작은것	-11.5343
▁오스트레일리아	-11.5343
[...]
